[PAD]
[UNK]
[CLS]
[SEP]
[MASK]
!
"
#
%
&
'
(
)
*
+
,
-
.
/
0
1
2
3
4
5
6
7
8
9
:
;
<
=
>
?
@
A
B
C
D
E
F
G
H
I
J
K
L
M
N
O
P
Q
R
S
T
U
V
W
X
Y
Z
[
\
]
^
_
a
b
c
d
e
f
g
h
i
j
k
l
m
n
o
p
q
r
s
t
u
v
w
x
y
z
{
|
§
«
·
»
×
÷
А
Б
В
Г
Д
Е
Ж
З
И
Й
К
Л
М
Н
О
П
Р
С
Т
У
Ф
Х
Ц
Ч
Ш
Щ
Ъ
Ы
Ь
Э
Ю
Я
а
б
в
г
д
е
ж
з
и
й
к
л
м
н
о
п
р
с
т
у
ф
х
ц
ч
ш
щ
ъ
ы
ь
э
ю
я
ё
–
—
‘
’
“
”
•
…
€
№
∑
−
≤
≥
☐
☒
##и
##н
##а
##с
##о
##в
##м
##у
##ц
##ы
##х
##0
##7
##2
##8
##1
##4
##6
##к
##п
##е
##H
##a
##А
##К
##У
##П
##И
##5
##й
##A
##3
##9
##т
##л
##ч
##ь
##я
##р
##i
##z
##щ
##Т
##В
##Е
##Р
##Ж
##Д
##Н
##д
##ж
##г
##б
##ф
##О
##С
##Л
##Х
##з
##ю
##Б
##Ы
##Ф
##Ь
##ш
##э
##k
##s
##n
##e
##v
##ъ
##Г
##Ъ
##Я
##I
##Й
##З
##Ч
##C
##Э
##ё
##М
##Ю
##Щ
##F
##f
##D
##w
##l
##b
##o
##r
##g
##t
##m
##Ц
##P
##N
##X
##d
##u
##B
##E
##K
##M
##c
##h
##L
##W
##T
##j
##S
##O
##J
##Ш
##Q
##p
##G
##y
##V
##x
##Z
##R
##№
##U
##q
##×
##Y
##≤
##−
##€
##ен
##ст
##ени
##ра
##ов
##ре
##сп
##он
##ения
##ак
##но
##ан
##ств
##ет
об
##ль
##кт
##00
##ол
##ны
##ат
##ор
##ом
##от
##ав
##ред
##ик
##аз
зак
##еч
##есп
##го
##еспеч
##ост
##ение
на
##ии
##тра
##олн
##ия
##ара
##онтра
##онтракт
##ча
##ся
##остав
##сполн
обеспеч
##ск
##им
##ок
##од
##ель
исполн
##ог
пред
##ля
##ер
##ных
##нт
##ной
##арант
##ий
##ит
пр
##уп
##ован
##ос
гарант
##огов
не
исполнения
##ле
##онтракта
##ки
закуп
##ой
##ем
со
##ли
обеспечения
##ется
##ора
##атель
##ед
##чик
догов
##ного
от
##ие
##ис
##реб
##ательств
##ая
##яз
по
##лу
обяз
##ей
контракта
Зак
##ент
##азчик
##ац
обязательств
##ам
##ар
договора
##ож
##вет
ра
закупки
##ветств
##0000
##ать
предостав
##част
##ребован
##ответств
##она
соответств
##лю
##ера
##иц
участ
Об
кот
ст
##01
##орм
##чет
##ник
##ого
##аль
##ребования
##азм
##02
##ин
##лен
##ще
##рок
Заказчик
гарантий
##ене
##из
##ный
##каз
ус
##ления
##ум
котор
соответствии
##едера
##яд
Федера
цен
тов
гарантии
участник
##че
##оя
##ении
заклю
сред
##ва
под
##ус
раб
##ве
уст
##мот
счет
##мотр
##ере
требования
##ющ
из
##авис
##ависим
гарантийных
или
##зависим
##щик
срок
##мотрен
##усмотрен
средств
Обеспеч
##ла
##оставщик
устан
Обеспечение
работ
предусмотрен
##ое
за
##лект
независим
##жд
слу
##об
##ением
для
##ской
Контракта
##лектр
случа
ФЗ
оп
##уб
##ть
##ке
##аяв
##осс
при
##луг
##лектрон
##казан
независимой
контракт
##ное
ре
услуг
##ЕН
##форм
##азмер
##стоя
заяв
##ные
##ци
так
##омер
##уд
Росс
##еля
##не
##умент
44
##окумент
##ование
электрон
случае
##ным
установ
##анк
##имен
вы
цены
##ун
##ствен
##вещ
Номер
##енеж
ос
Пр
##нформ
##на
##нформац
настоя
202
##пр
документ
##ции
Федераль
стать
Поставщик
которы
##сти
##ук
денеж
##ению
##олж
##лат
##22
указан
##чаль
##ист
про
##лож
##итель
долж
##ации
товара
обеспечение
##ами
##оряд
На
ка
##рав
##оп
лиц
##акс
установлен
##щего
##ейств
##ир
денежных
Россий
Федерального
##ном
##та
##ималь
Догов
##аксималь
закона
максималь
##осуд
участником
действ
##осудар
##чения
началь
руб
Размер
00
##иты
##де
предоставления
разм
##мен
##ляется
##честв
заключа
##именование
пров
##ют
начальной
##укци
статьи
состав
##ут
##нформация
##осударствен
требованиям
заказчик
договор
максимальной
заключается
форм
аукци
##нес
2022
##орон
провед
##пос
##их
опред
##ряд
постав
внес
##ЕНИ
уч
##ются
банк
##лов
##ив
##ществ
##ующ
##рядчик
##пособ
##ект
Наименование
##орядок
##ици
##уется
Контракт
##сли
качеств
10
##ский
##ляет
##ност
закупке
счета
##рг
##ского
##кв
товар
электронной
извещ
##ная
##ран
##ев
заявки
форме
Закона
од
размере
##уществ
##пис
пол
##ОВ
##иче
##ИК
год
ча
##ребуется
##чё
##ку
##квиз
При
##ъект
действия
##истем
бы
##ест
рас
##001
систем
##жа
##СТ
##оз
Федерации
Российской
##ка
товаров
##лате
вып
##АН
настоящ
##ее
##ОН
##анс
если
##оль
пре
государствен
услуги
##еле
осуществ
##оч
быть
##ающ
работы
предоставл
##КТ
##паль
##иципаль
##униципаль
##ую
заключения
##ней
##квизиты
Договора
##10
##рган
##ания
проведении
201
##РА
мож
Ст
может
Требования
которым
##45
Способ
ав
мене
закон
участие
менее
составляет
##вы
орган
системе
Под
##тель
##оект
банков
закупок
раз
##умм
контрактной
##прос
##ить
##ена
обла
предлож
##НО
##43
настоящего
Порядок
##000
проц
##ителя
##ская
услов
45
муниципаль
организ
03
##нач
##ид
##КУ
##еся
##вается
аукциона
определя
указанный
##режд
##ими
20
##ожд
##же
выполн
БИК
##ию
учрежд
##ункт
##зу
запрос
05
##выш
Заказчику
превыш
Заказчиком
##44
воз
подпис
##иров
Срок
информация
##емы
до
Заказчика
соответствующ
гарантия
счё
##37
##льт
Из
##ЕР
##ал
объект
##ений
каз
##дент
##ОС
ну
##ру
нужд
законод
Требуется
св
законодательств
Исполн
##ЕНИЕ
##ми
Поставщиком
сам
04
##чен
документации
Извещ
счёта
##тельно
##ион
##остоя
##лед
##зульт
01
##ском
##зультат
обеспечению
организации
12
результат
##лежа
##том
должен
поставщик
пере
сумм
пос
##00000000
обязательства
##ЦИ
законодательством
пост
##лей
##ителе
самостоя
ЗА
самостоятельно
Информация
##чис
заявок
ПР
пя
рублей
объекта
11
пункт
ОБ
##редит
области
котиров
##028
##латеж
том
Подрядчик
реквизиты
##ваются
##вер
##ское
чем
предоставляется
##ДА
##ез
процент
кредит
##643
##то
котировок
подрядчик
его
2013
16
##ией
электронного
осн
внесением
##ФК
##ства
##есяц
размер
месяц
яв
##вод
##03
96
##чи
чис
##ород
кор
дат
##ОР
опера
ДО
От
предоставлением
##уч
качества
предусмотрено
УФК
##ех
##авли
превышать
кон
дней
аванс
Договор
##ход
что
извещения
30
государственных
##ЕРЖ
Извещение
части
Банк
сф
поступ
числе
сфере
##щая
качестве
##ороны
##лич
##ил
устанавли
##раве
произ
##дел
аукцион
прав
предусмотренных
котором
муниципальных
Не
##твер
уп
##23
##дан
##рес
##олее
соответствующей
##твержд
##ования
##ещ
без
ок
##длежа
##СК
опреде
вп
вправе
##ры
Контрактом
##начей
##аться
##ность
##траф
част
штраф
более
лицев
требован
##ЕЛ
средствами
##ными
установлено
##ающими
##дин
##дрес
процентов
##ложение
запроса
учиты
условия
учет
кредитной
учитываются
401
##респ
операции
поступающими
##респон
Общая
##370000
срока
лицевого
##респондент
##45370000
##жет
401028
такой
внесения
корреспондент
доп
имен
##иб
заказчику
корреспондентского
##став
определяется
КОН
производ
аванса
казначей
также
##ному
Ре
##ТВ
##юд
##ЕД
Тов
##оск
##одер
проект
основан
13
коп
##ЕКТ
##СП
отказ
##01001
##енных
##ителем
##юджет
##ается
##ности
Платеж
##овы
налич
требованиями
измен
Платежные
Российский
##ены
имену
Пол
рубль
учреждение
даты
ИН
##люч
##ко
Поставщика
поставку
предпр
цена
##пров
учетом
##ТВЕРЖ
этом
##лении
бюджет
##СИ
##цать
##иваться
##ТРА
банковской
заказчиком
14
исполнение
##ление
##ечение
вк
года
##вра
информац
порядок
устанавливается
содер
результатам
сопров
договору
##ическ
пять
##мет
должна
##рани
##ием
##грани
которые
##ТРАКТ
после
КОНТРАКТ
УТВЕРЖ
вс
##уст
##ики
Приложение
##уск
сопровожд
##06
##12
##ИЕ
обеспечиваться
статьей
##огла
##кур
##фик
требуется
##анов
полож
должны
##ДАЮ
Государствен
##ТА
Гарант
##олнитель
##ацион
##ующего
##тного
Проект
перечис
##ание
##лять
##ачи
примен
город
##ире
течение
один
настоящим
##сно
##ад
##КА
##ня
##вед
выдан
поставки
##олько
пут
допуск
УТВЕРЖДАЮ
поряд
##25
Исполнение
15
России
##енадлежа
ненадлежа
##лено
расчет
ПО
##него
наличии
им
##ло
поз
конкур
является
только
предусмотренный
##диниц
ви
способ
который
95
путем
##ирект
##08
##ты
##СТВ
##ти
##нейш
##07
подтвержд
40102810
виде
##прав
##ледующ
эк
##ленных
0322
расчё
ком
иск
##онч
обеспечи
##НОЕ
Моск
Прав
##лата
аукционе
##ков
##0001
определения
##05
код
##ует
22
расчётного
##бед
оконч
##ью
представ
обязан
возвра
даль
##63
побед
дальнейш
##АСТ
##дцать
вклю
37
неуст
проведения
ИНН
дальнейшем
##исполн
##ря
основании
##утств
согла
участника
##рид
##НИ
требование
Участ
##щее
Доп
ин
##але
##МЕН
##оном
прин
гарантией
Товара
##ехн
исключ
25
которого
Участник
##анию
именуем
##ЛЬ
##убл
Реквизиты
Дополнитель
прод
изменения
но
оказан
##аракт
##ибо
либо
##ах
##ПП
заказчика
##4643
##пре
##ГО
##сутств
отд
возм
Респ
участникам
НМ
Пред
СО
##га
прием
поставщика
##овать
##носторон
осуществлении
КПП
##КУП
##раз
определяются
содерж
односторон
изм
отдель
##ек
##бря
НМЦ
РОС
##пе
таким
Постав
отсутств
##КУМЕН
суб
##ЕНИЯ
ДОКУМЕН
дня
мог
ЗАКУП
Дополнительная
##арактер
АО
##зы
##оруд
порядке
Контракту
именуемое
неисполн
##еек
копеек
##ленного
подписания
Гарантий
##арактерист
адрес
##ай
РОССИ
##луж
контрактом
БАН
два
##нование
ты
подачи
осуществляется
Республ
могут
##инанс
##ас
##АЯ
##ября
##ЦИЯ
##ерб
##ительства
сент
##иж
предоставить
Кра
Поставка
ул
##71
Стороны
тыся
сентября
24
##иже
##имост
лице
подрядчика
##ция
обеспечены
##ДЕЛ
##ди
##емых
исп
такого
##того
##ОРМ
исключением
дру
ограни
##ифик
пер
ПРО
РОССИИ
##ot
БАНКА
##казы
##или
отно
положений
обс
прик
случая
##ДС
##иним
##ранения
производителя
##лужив
НДС
выданной
##алее
##тия
исполнителя
##али
эксп
далее
##БУ
извещении
де
##бы
##скому
документы
настоящем
##емые
окончания
18
№44
##НОЙ
Да
предприним
ГУ
составлять
обслужив
##11
##000000
##есто
000000000
РФ
##овой
стороны
которой
##дар
##емого
соб
документов
##ОВО
За
##ательства
сумма
##КИ
нед
субъект
частью
09
связ
##щад
штрафа
##лощад
мал
##РЕ
##основание
##ационный
двадцать
ОТ
##шения
##енное
банком
ДОКУМЕНТА
УЧ
##ург
##ъем
##чень
акт
единиц
площад
##ОЛ
##ента
пунктом
17
##шению
приня
прот
ниже
##лав
Сторон
Государственное
03224643
##арактеристики
19
##те
##СКО
перечисления
применя
##ает
средства
малого
##ро
##окол
предусмотренного
Банков
##НЫ
рабоч
штрафов
23
##ИЯ
##ри
##ляющ
##51
##ВЕ
право
##пеци
50
Дат
##ную
направ
ДОГ
##ЕСП
##акт
документац
Если
Обоснование
ДОКУМЕНТАЦИЯ
следующ
рай
договором
предпринимательства
##ещения
##2643
ru
##хожд
##дентифик
исполь
21
плате
##тап
неустой
##зыв
ПРОЕКТ
##са
все
платежа
##стор
ИЗ
##нем
08
##бор
мед
##оимост
##дентификационный
##му
##АР
##91
##отзыв
##емь
##АО
##ится
##очной
Дата
авт
##ВЕЩ
##ОВАН
разде
рабочих
вре
##75
предмет
Полож
мом
предоставляет
подтверждающ
отсутствует
ИЗВЕЩ
##сят
##онт
директ
##ес
прилож
действующего
Банка
допуска
пени
техн
##да
Подрядчиком
##хождения
##20000
##кры
документа
извещению
Идентификационный
кра
##220000
недост
ОК
зд
##73
##ателя
##ЕТ
##ому
сво
31
Адрес
##98
объем
##еду
отказа
Красно
ОТДЕЛ
##сторж
##ох
##нер
##аб
среднего
предложения
ФОРМ
Получ
включа
ОТДЕЛЕНИЕ
##21
##тор
##луат
проис
бюджетное
Сумм
сн
учреждением
##орудования
обслуживанию
##61
эксплуат
##ицин
недостат
дан
деся
##33
лицо
безотзыв
момента
Сумма
##ала
процеду
Пет
##кут
гарантийному
##ирован
неустойки
сниж
Оп
##фици
##шение
##овое
##латы
##начение
Правительства
тре
##ел
полу
цену
##щим
##вает
информацион
врем
иност
##кци
ЭЛ
##ых
##инист
банковском
протокол
иностран
222
ит
##чин
##II
выполнение
автоном
##нее
приемке
##АЛЬ
##РОН
приз
##ональ
##ица
##ЕНИИ
измер
ЭЛЕКТ
##ражд
##005
##04
##65
пяти
конкурент
медицин
ЭЛЕКТРОН
ран
##нов
##десят
ун
предоставля
указанных
осуществления
выполнения
ненадлежащее
оформ
начис
##инг
##ЦИОН
связи
##оох
##яв
##атер
Договору
финанс
##равоох
##ОВЕД
##ках
ПРОВЕД
##ичеств
##днее
Вы
##ТЕЛ
такому
здравоох
Нов
вид
специ
##ур
##оличеств
позднее
ИЗВЕЩЕНИЕ
здравоохранения
Сан
##НАЯ
##енного
площадки
НА
##СТВЕН
измерения
##раждан
Ус
##енным
участниками
##ОСУ
Оплата
заключ
реест
##ическое
КОНТРАКТА
конкурентной
##тора
наименование
##ивш
настоящий
предприя
безотзывной
##полн
##лон
##ального
##ственных
раза
##сот
откры
##ДАР
##ведения
тысяч
пис
##итар
07
##ПР
##тов
##ЕЧ
установленным
информации
##ербург
Петербург
платеж
##48
##клон
##95
образ
случаях
ГОСУ
Код
характеристики
##ских
установлены
запросе
ГОСУДАР
##енера
##реп
##ктов
##люд
предоставление
раздел
0323
##ителей
предусмотренные
##оссий
Санкт
ГОСУДАРСТВЕН
##ентр
требованиях
##стоятель
казначейском
победителем
закупочной
расторж
##мень
сопровождении
расчетного
Республик
Сах
##се
предусмотрена
сумму
ЭЛЕКТРОННОЙ
Место
пит
##ователь
##иции
директора
пись
пом
рем
##200
##рит
контрактов
ОБЕСП
ОБЕСПЕЧ
МУ
Пере
##ница
##ового
##ети
стоимост
Подпис
Москва
настоящему
Получатель
Документ
##орая
которая
##лага
осв
предложен
предложений
пункта
питания
Раз
ФГ
сч
##уктов
обеспечении
полтора
расход
##ТЕЛЬ
ПАО
их
##77
##ина
ФОРМЕ
номер
пор
##ями
##рад
##обожд
2023
условий
##овый
##ических
позиции
ранее
26
Якут
цене
##28
##ЛО
предоставлено
##лад
продуктов
освобожд
боль
##102
стро
расс
зам
окру
использ
06
мер
##АВ
##отреб
пе
##ленной
установления
одностороннем
Гарантийные
унитар
##атери
фили
этап
##вар
##стр
надлежа
##ально
##ходя
прикреп
##ОВОРА
ДОГОВОРА
Электрон
поставке
##ического
уклон
##орона
поч
##писание
00000000000000000
россий
##емп
одной
законом
больница
Директ
ва
потреб
##24
##35
##018
Федеральным
##2200
получ
получения
##27
##АУ
##ова
##итет
##ИКА
месяцев
Независим
матери
##АНИЕ
пункте
соблюд
Банковское
Глав
##19
##ИР
##фект
##исс
перед
Заяв
РА
##орт
Сторона
сопровождение
##нерго
##сть
##алин
время
гарантию
реквиз
заявке
государственное
выполненных
дефект
Директор
223
Еди
ИСП
##26
##ские
##обход
оказания
##ОЛН
ПРОВЕДЕНИИ
письмен
Независимая
реквизит
Итого
КО
##ерн
сторон
подлежа
##быт
000
юрид
##ениями
##ация
процедуры
##18
##енз
Муниципаль
##гой
##окуп
Началь
выплата
возмож
применяется
документацией
ОБЕСПЕЧЕНИЕ
Перечень
Ограни
##46
##лением
##ef
##овод
##ство
умень
№01
подписан
казначейское
отказе
обеспечивает
ЗАКУПКИ
друг
включая
##оличество
дв
теле
##ЖД
2024
суммы
По
убыт
##УК
##МИ
##oot
##орг
необход
##есть
настоящей
ограничения
своих
трех
foot
факт
##ух
##not
##eR
гарантом
##ительно
установленных
##СТАВ
другой
УЧАСТ
недостатков
##ОЛНЕНИЯ
footnot
##eRef
footnoteRef
28
соответствовать
участнику
превышающ
ПРЕД
частями
отношению
итогов
пен
##66
прилага
подпись
поставщиков
неисполнение
Положения
Пост
##кой
##ТР
##гается
##онта
заключен
причин
установить
выполня
комп
##казывается
##ОВАНИЯ
##лог
поставщиком
комисс
ОКП
валю
Сам
сроки
##уковод
лицом
муниципального
Республики
##НЫЙ
##енераль
лица
предложена
Описание
фай
##ип
нему
указанной
Исполнитель
требований
согласно
##БУЗ
ремонт
Электронный
Цена
##ота
подп
##ический
Гарантийный
Покуп
См
##мест
##АТЕЛЬ
##ДЕРЖ
Исполнителем
уплате
ненадлежащего
района
29
государ
пон
##еб
расп
рег
установленного
обеспечивается
Постанов
42
##энерго
нес
контракту
системы
##елей
учреждения
подрядчиком
возврата
##СКОЙ
ИСПОЛНЕНИЯ
##аг
##пара
обстоятель
таких
банка
Подрядчика
являющ
то
шесть
##78
##олог
##отов
##ляются
Товар
##овых
начисленных
##ражданск
вос
ис
##лендар
гарантийного
казенным
Услов
филиала
##цен
##еп
##ОД
##ством
закупках
##укции
СОДЕРЖ
информационной
Форм
##09
##ше
##ерное
##вали
запре
которых
календар
АУК
Единиц
№1
##елю
##ращ
##оде
Закуп
размещ
##деление
проектом
##ляться
име
принятия
торг
##город
включен
03232643
календарных
АУКЦИОН
ОГ
уд
##вать
##64
нару
##щество
Москов
десяти
убытков
вз
ее
электронном
установленном
предоставлению
возврат
субъекты
пеней
Единица
##ано
##29
исполнителей
##ару
##лены
##4525
ЗАПР
Мин
№03
##ять
##енить
##овер
##лин
лицами
##овые
подпункт
СОДЕРЖАНИЕ
ГАУ
вра
ходе
##иль
##азначение
денежные
2022г
##НОГО
подрядчиков
ПОД
##кцион
##ЖДЕНИЕ
трид
##дм
##ень
##енные
указанного
способа
##РЕЖДЕНИЕ
УЧРЕЖДЕНИЕ
предметом
##инистра
рассмотр
Рос
ТРЕ
Уст
исполнителем
##ирование
Договором
уплат
##казыва
приказ
##емпинг
##дминистра
27
Кон
Пре
Требован
оказыва
уве
##УБ
##39
##яс
##ров
##готов
##оек
случаев
происхождения
Техн
ФИ
##41
##ком
##щей
##ремен
всех
кодек
Требование
33
Зам
##бин
##МО
перечень
ОБЩ
валюте
восемь
##ИЙ
##ительного
кажд
поставля
неустоек
краю
поруч
Финанс
кар
##пит
##рос
##ТЫ
##амен
издел
соответствующим
применения
возмещ
реквизитам
обстоятельств
ЗАПРОС
ТРЕБ
Количество
центр
##ИС
##лия
##енности
##имуществ
решения
предоставлении
проекта
##ива
предложение
Отделение
огранич
автономное
дев
след
оборудования
##ическая
основ
месяца
неисполнения
снижена
Ограничения
ТРЕБОВАНИЯ
##пора
##нтид
гарантийные
действующ
##еститель
##ибир
##ведом
субъектов
район
приложениями
Самар
##кционерное
рассмотрения
Нет
##16
ОБЛ
имени
03222643
комиссии
##нтидемпинг
Назначение
еди
лет
опис
##ическим
призн
прилагаемые
увели
ОБЛАСТ
Ком
##ено
гаранта
обязатель
Объект
выб
облагается
управ
содержа
Саха
прикрепленных
00000000000000000000
апре
##86
##КЕ
##енефици
должно
одного
содержанию
ГОСУДАРСТВЕННОЕ
Раздел
необходим
апреля
низ
целя
##49
##товый
##атом
нахождения
размера
Подпись
Якутия
превышающем
целях
семь
указывается
##иод
##15
##945370000
##ати
предоставленного
##номоч
соглас
##орудование
перв
потребовать
Главный
КОТ
подпунктом
Ос
##имся
##лек
ответств
40102810945370000
одностороннего
Сторонами
Краснодар
Вол
Денеж
как
тех
##оре
##36
##ят
соответствующего
Оборудования
предусмотренной
независимую
##ностей
##емым
предоставляемого
получателя
ОГР
Денежные
60
един
тер
утвержд
##100
##101
##ТО
такое
особ
условиями
города
изменить
возможность
взамен
дет
целей
##74
##озм
2018
Заместитель
301
Ка
##20
##ЧЕ
##ерж
условие
результатов
конт
НМЦК
ЗАКУПКЕ
период
предприятия
Преимуществ
Рас
жил
уведом
##244
##ЯВ
##леж
государственного
постанов
дата
сопровождению
заключении
открытого
##ЛОЖ
уменьш
ЧАСТ
новое
оцен
##начения
максимальная
составу
##0003
послед
ЗАЯВ
стоимости
предложенная
понес
ОБЛАСТИ
Управ
мест
##сед
##щие
##щих
##шении
##оров
установленный
возвращ
Предусмотрен
акта
протокола
расторжения
Ча
лота
##ованием
##лас
Поставщику
##105
##СКАЯ
Самарской
аном
##87
##еж
##щерб
##ъяв
##еты
##атив
##оритет
##амент
казенное
основанием
именуемые
происходя
Новос
аномально
D0
ЦЕН
буд
ущерб
##13
##тие
##лению
##ющего
##ании
задан
автом
##емый
свед
победителя
##екар
эксплуатации
##полнение
дефектов
особен
65
КБ
дом
место
монта
наз
##47
общество
##олномоч
##оброс
размещения
поставленного
препара
кредита
производится
##ритор
меры
Новосибир
##обросов
Гражданск
Каз
СА
Тип
экв
##69
##лент
независимая
разделе
призна
выполняемых
##ивалент
##обросовест
эквивалент
35
лекар
указ
##ич
##мер
##ъяс
##ЧИК
##рет
приложение
2025
устанавливать
казначейскому
##0100100
продукции
оказание
Предмет
раздела
Мос
Цен
##аются
##яр
предусмотренном
указанием
государственным
представлено
Краснояр
надлежащего
ЧАСТЬ
##ним
##ПАЛЬ
##ИНИ
стан
##ирования
2011
муниципальным
##ЦИПАЛЬ
правил
##НИЦИПАЛЬ
реестре
МУНИЦИПАЛЬ
ремонту
Закупка
##етыре
Все
Сев
##аш
##oc
##траль
##ацию
выда
Федеральное
капит
извещением
##ОВОР
##4537000000
положения
конкурса
ДОГОВОР
подтверждающей
Выбор
Выполнение
изделий
##озмож
301018
признается
ЕИС
тр
##34
##99
##рост
нача
Прилож
##РАЗ
результате
бюджетным
финансов
юридических
КБК
ТО
во
##ый
##17
##лн
##елябин
##220001
##алы
##чили
правовой
содержать
унитарными
подлежащим
ОКПД
Установ
приказом
территор
предприятиями
особенностей
##ъясн
начала
Акт
Калин
МА
Манс
Челябин
##32
##енный
##емой
соци
контрактам
устранения
##ункци
Контракте
##ностью
отдельного
применяются
##инистер
Республике
РАЗ
ОГРН
выдача
Мансий
doc
Акционерное
иным
пок
##ОУ
##tp
обязуется
##альный
подведения
предусмотрены
служ
Россети
##тый
Начальник
ущерба
VII
Город
ИК
четыре
№2
##цати
##ОЧ
##ступ
##анты
##огра
заключили
устран
014
сумме
единицу
##енерального
02
Ханты
бенефици
зав
лю
млн
##вит
предъяв
участников
Прим
##ической
##имися
следующим
десять
##новремен
округ
Муниципальное
УЧАСТИЕ
Форма
увеличен
Предусмотрена
ОКПД2
Министер
квали
суд
##алов
##ыш
##УП
##яется
##ТП
##бот
##ЛА
обще
должность
область
уполномоч
адресу
32
34
78
Ку
##60
##аков
Извещения
частей
Характеристики
руковод
сов
№08
##ak
##il
##ерез
приоритет
провод
расчетный
Участникам
отношении
образования
##овательное
уклонивш
тридцать
ЗАПРОСА
##нтидемпинговые
Преимущества
РАЗДЕЛ
ГБУЗ
сети
##300
##ДЖ
##СУ
##ола
исполнением
##орматив
##2201
##амилия
одновремен
организац
Решение
отказом
##КАЗ
обеспечиваются
отдельными
##ОВОК
использу
предприятие
расторжении
почты
##ИРОВОК
являющимися
КОТИРОВОК
оценки
БЮ
КТР
Лени
ОКТ
Сведения
Утвержд
день
клин
##ФОРМ
изготов
##образ
##001001
возмещения
содержат
документация
##ритер
освобождает
двух
телеф
оказываемых
монтаж
Север
##ДЖЕТ
БЮДЖЕТ
КТРУ
ОКТМО
ww
Инт
НБ
ори
сай
##кое
##97
##арт
##00000001
##оначаль
##0244
##ственно
указаны
рубля
внесение
собственных
медицинских
материалов
##месте
ФИО
первоначаль
эквивалентном
БЮДЖЕТНОЕ
www
010
РЕСП
Раб
вместе
##иональ
##ОО
##ЭС
##окращ
исполненных
##услов
выяв
прет
развит
ИНФОРМ
##ически
соглашению
22263
врач
##УБЛ
следующего
службы
ИКЗ
РЕСПУБЛ
ИНФОРМА
100
##следующ
##под
##58
##500
##атор
##0000000
решение
окончатель
обязанность
освобождается
округа
использованием
ma
##68
##град
подлеж
##22000
##ополь
##рансп
свой
##СКИЙ
401028102
ЗАКУПОЧ
нижеследующ
уклонившимся
mail
Ор
через
электр
##мм
обуслов
##оставления
##еров
предоставляться
уплаты
ПОСТАВ
эконом
приемки
направления
унитарное
##мерче
Калининг
нижеследующем
77
ВО
Поч
Согла
##510
##роч
##енной
осуществляющ
включ
представляется
обязанности
видами
счит
российского
Минф
единой
первоначально
претенз
ht
СП
СМ
Юрид
втор
три
##ний
##сов
##лок
##лена
##обед
##ственного
заключаемого
условиях
##1244
эксплуатацию
МУП
фактически
причиненных
обстоятельствами
описание
ЗАЯВКИ
общеобраз
ЗАКУПОЧНАЯ
http
39
ию
##ича
##нару
##аю
##700
##40
##жен
##бора
##er
##os
##скими
##ника
установленными
##ующее
условиям
дополнитель
Правитель
иностранных
этапы
распрост
Централь
увеличенное
##подрядчик
Калининград
Антидемпинговые
Побед
вно
##50
##ОК
##онд
обнару
##атр
прос
##АНТ
возник
ЗАКАЗ
##02810
Гарантия
победитель
оформления
реестр
Условия
Управление
территории
##ункциональ
Администра
ввод
сил
##ВД
##to
##енно
неп
непос
отв
отчет
заполн
##руз
##става
городского
##пец
экспер
запрета
уплатить
девять
основного
VIII
распростран
непосред
41
Информац
Лиц
##иф
##сом
##037
##КО
исполнитель
Законом
##обрет
##цип
выбор
##22001
указанным
поставка
разъясн
процента
связан
Положением
медицинского
другая
государства
ГАУЗ
возмещение
управления
автомоб
отвеч
непосредственно
43
II
Влад
Ниж
стра
№3
##ций
##59
##ателю
##оставление
качество
##озя
условии
126
##4537000005
наличия
##ационной
тысячи
видов
Республика
ФГУП
строительства
согласован
##aku
клиническая
Информацион
48
ГОР
добросовест
кол
##след
##52
##жения
##ЛИ
##омыш
указанном
##ОВАТЕЛЬ
Стоимост
##АЛЬНОЙ
специали
стоимость
российскими
поставляемого
единствен
будет
##окращенное
обусловленного
Стоимость
66
Устава
си
##аж
##работ
##нолог
##аров
##0000001
расчетов
односторонним
Сахалин
помещ
государств
понесенного
указать
проводится
июля
##обретение
##озяй
126н
МО
РК
атом
##ира
##ева
##рой
##РС
##орпора
##имой
независимых
одна
подписью
##арактеристик
помещения
Якутск
передачи
файла
удерж
постановлением
сайте
Минфина
добросовестность
Ли
ЭТП
квар
мил
фонд
характеристик
##церн
##УГ
##ЕХ
##дов
##СЛ
##ста
##онов
##ечения
Оборудование
гарантийный
оплаты
##опас
##оронеж
##ающие
последующ
являются
расходов
Начальная
УЧАСТН
Примеч
Северо
Почтовый
ЗАКАЗЧИК
Госк
Электр
глав
дор
##212
##80
##ФО
##ству
##ерс
предусмотренным
Прив
казначейский
Государственный
401028103
Зап
##ированной
итог
несет
Гражданским
Госкорпора
67
Вид
Руковод
Специ
ТЕХ
Центр
##возмож
##ИИ
предвар
##ителю
промыш
##верд
##ические
##СТВА
Запре
следующем
##струк
соблюдение
##ограмм
милли
36
925
Сара
генерального
две
физ
##89
##31
##3000
##тир
##логов
##щий
##ГУ
невозмож
соп
##лиц
отбора
подав
сроку
зап
Российская
выплаты
##РАВ
##ледств
безопас
отсутствии
иностранного
исслед
АУКЦИОНЕ
кодексом
каждый
##лекс
жилого
последнего
сведения
docx
показ
##рочки
Липец
Запад
110
244
zaku
Ав
Тю
офици
хозяй
##800
##AG
##ki
##рава
##одол
Федерация
##надцать
##ЦИИ
учета
тысяча
дея
Запрос
единицы
##муник
Услуг
торгов
ОБЩИЕ
уведомления
Примечание
zakup
Баш
МП
Фили
Юг
трансп
##КС
##30000
##ламент
##ног
##остан
прис
##рукт
КОНКУ
проекте
пятьдесят
способов
инжен
##СКОЕ
Финансовое
Челябинск
окончательные
Правительством
PAG
Конт
МОС
СР
Юж
##ули
##тиз
##лет
##РЫ
##альном
привед
Примен
Настоя
##ирует
подписи
копей
вследств
инст
СОСТАВ
относ
треть
иностранными
разделом
надлежащее
файл
технолог
Казначей
просрочки
Запрет
Башк
PAGE
вследствие
Воронеж
Генераль
Пер
фамилия
##оэ
##88
##600
##НА
##бург
##nk
непре
##еми
##ленное
уси
установленные
Исполнителя
оператор
Председ
ДОКУМЕНТЫ
##АРТА
края
##нерг
Новгород
##220002
##ортостан
##шего
АУКЦИОНА
кодекса
Расчет
происходящих
Всего
совмест
Утверждаю
считается
силы
Руководитель
zakupki
Башкортостан
непреодол
Значение
Этап
№4
##42
##55
##ЕРА
##ЕСТВ
##дела
внесенных
банковская
бюджетного
ненадлежащим
Документация
телеком
ОКПО
Условие
##РАЗОВАТЕЛЬ
развития
автомобиль
Казначейский
непреодолимой
38
80
Кем
СТ
значения
печ
факс
##30
##92
##яж
##зд
##ань
##альной
2021
часть
НМЦД
объеме
времени
соблюдения
регламент
Финансирование
Городская
Ленин
Применение
телекоммуник
Кемеров
102
Бел
ГБУ
Ра
Сверд
администра
инт
##во
##газ
##ЛЕН
##шением
##en
##ov
программ
Общие
004525
форма
##ловской
##очных
посред
Предоставление
##СКОГО
подтверждающие
директор
00000000000000000510
письменного
лекарственных
ИНФОРМАЦИОН
40102810345370000
невозможности
КОНКУРС
усиленной
Председатель
Этапы
III
ГК
КА
Так
ЦФО
ист
иных
себ
функциональ
##иг
##нут
##701
##14
##ткое
исполнении
##казание
денежной
годы
##ающих
##тельности
##0301
##ОРОН
иници
Участником
разделен
данного
автономного
заключить
расходы
строитель
Заявки
Росатом
уплату
Акта
Владим
деятельности
МОСК
себя
1000
407
Соб
ФЕД
ап
вин
днем
мин
сп
смет
##ош
##70
обл
##оля
##ате
##ска
##лем
##атья
соответствует
##люс
прив
внесенные
##ЕНИЙ
##СТАН
правоп
определение
допускается
##9101
заключенных
шестьдесят
##щейся
Основание
РЕСПУБЛИКА
последующие
предварительного
##ноглас
посредством
ФЕДЕРА
49
Норматив
Том
##ец
##УЧ
##би
##СО
##ГЛА
##0000244
стат
Прод
товарам
разноглас
СОГЛА
следующих
информационно
открытый
письменной
##энергоатом
торговой
нарушения
Росэнергоатом
необходимо
станция
обнаруж
непред
разъяснений
УЧАСТНИКА
Саратов
Филиал
Генеральный
телекоммуникационной
правопре
СОГЛАС
ros
КАРТА
РЕ
критер
он
##вор
##кого
##38
##гин
##фиц
##ЛЯ
##ЯД
##рег
##ана
обуч
##ита
гарантирует
денежную
лиценз
полностью
свер
информацию
конкурс
401028108
Москвы
принцип
протоколе
Документы
этапа
Единые
сторонами
ПРЕДЛОЖ
ограничений
препаратов
выбору
единственным
квартир
фондами
СТОРОН
00452598
ИНФОРМАЦИОННАЯ
правопреем
1005
75
КРА
ООО
плюс
рам
##ул
##уль
##уры
##76
##411
##руп
##РУГ
##лиз
##010
оплате
такая
полном
пунктами
неисполнением
принять
##НЫХ
Петербургу
платежей
ФГБУ
подписанный
Концерн
возвращаются
правилам
Министерство
претензий
отчетные
СОГЛАСОВАН
Для
Кол
количеств
энерг
##ьев
##ДЕН
##гов
##БОУ
##ЩЕСТВ
##002
Обстоятель
сто
указания
##ивать
законодательства
корп
авансового
подтверждается
401028104
401028105
исключение
отдельных
Банковские
недостатки
Документации
##строй
комплект
запретов
выбира
содержащейся
детей
завер
люб
безопасности
Контакт
##улир
Ленинград
вине
разногласий
правопреемства
Обстоятельства
74
Ал
Кор
бум
шт
№037
##исп
##ма
##ПИ
##ЪЕКТ
##ЯЗ
##орок
заказ
##ему
##ребовать
##000008
##альному
Прот
действовать
заказчиками
органа
044525
выдана
допускающие
401028107
##НИЧЕ
Краткое
ГУП
ОКРУГ
##сторжение
ПРЕДПР
Техническое
действующим
Волго
Согласно
экспертиз
Нижний
силу
главного
Расторжение
Нормативно
ПРЕДЛОЖЕНИЙ
200
406
ОСУ
Соч
блок
ск
##мун
##7200
##лгаз
начин
предус
участием
##облгаз
##циональ
##ственник
Приобретение
Статья
превышает
городская
Правил
##роитель
снижения
03234643
ГОСУДАРСТВЕННЫЙ
использования
почтовый
Единый
имеет
##городской
Московской
ограничению
Часть
Мособлгаз
бенефициару
одновременно
40102810245370000
ПОСТАВЩ
осуществляющей
итогам
ТЕХНИЧЕ
сопоставления
исследователь
копейки
##ЩЕСТВЛ
Протокол
ОСУЩЕСТВЛ
Ир
Ниже
норм
эт
##кола
##шим
##анным
оборудование
##атора
##ленный
начальная
извещение
##елем
Став
0321
счёт
бюджетной
выданная
##464300000001
отдельным
Банковская
##АРИ
подтверждающий
соблюдением
##ернет
##ологии
восемьдесят
задание
назначения
Установлено
монтажных
Интернет
распространяется
##струкция
инициалы
рамках
ОСУЩЕСТВЛЕНИИ
АД
ЗД
Оказание
УСЛ
ана
##ИЗ
##лан
##яност
##ОМ
##зий
##МУ
##овлет
##ателем
наступ
##ленные
подраз
сроков
оплат
##цион
документами
##22005
##4537000002
401028100
##вразий
субподрядчик
направлено
строительно
Заявок
30101810
0140301
квалифиц
Работ
подлежат
Свердловской
Сочи
0321464300000001
##овлетвор
014030106
54
Ар
Аукци
Бар
ДЛЯ
Евразий
Ин
Физ
иной
тел
##2000
##20001
##ЕВ
обязательство
Обществ
работам
##иста
формы
##ЕНИЮ
109
##евой
банковск
##ационного
соглашения
##имости
своей
включается
##оверенности
врача
тридцати
ответствен
ЦЕНТР
назнач
капитальному
общеобразовательное
Администрация
специалист
инженер
файлом
Правилами
##яносто
40
Деп
МСП
вод
иное
иные
мет
нак
ред
сер
теп
##ощ
##уще
##79
##дцати
##енными
##траж
##ованию
неск
##013
выс
государственной
банковский
разработ
выполнении
Извещению
изменений
УТВЕРЖДЕН
конкурсе
##718
##илищ
площадке
##ОВАНИЕ
специального
Подписано
Единой
Покупателю
ПОДР
действующей
низкой
ответственности
МУНИЦИПАЛЬНЫЙ
социально
организаций
ГОРОД
СРЕД
##РАЗОВАТЕЛЬНОЕ
Физическое
55
85
АЭС
ГО
внут
гражданск
кВ
клас
##ульт
##ОБ
##ХА
##ших
##no
исполнению
##итут
##емая
предоставленной
соответствие
##едераль
##2202
Подрядчику
дату
Ответств
Откры
##илит
представить
##екст
ограничен
следующие
##абилит
ПРОВЕДЕНИЯ
Заявка
Покупатель
удовлетвор
уменьшен
Новосибирской
САХА
квалифик
руководителя
оригин
СПб
Госкорпорации
транспорт
Владимир
СОГЛАСОВАНО
ПОСТАВЩИК
исследовательский
143
46
Кры
Хаб
федераль
##аемых
##мат
##рополь
##ТЕР
##ЕМ
##рат
##раль
##анал
соисполн
##000001
участия
##изн
залог
заявку
##ука
##тай
##ОВИЯ
##ическому
банковских
##алт
корпора
произош
пятьсот
подтверждения
инвали
продле
оказанных
образовательное
уклонении
Постановлением
возврату
Конкур
восемьсот
девяносто
40102810945370000005
контак
судеб
организацией
##артамент
Юридический
второй
внос
связанные
Специфик
совместно
Ставрополь
Хабаров
90
ВАРИ
КС
СУБ
бух
гра
##оответств
##цией
##ежд
##КРЫ
##ПО
##ИН
##54
##ТЬ
##гор
##спор
##ант
##орных
ответ
соответственно
##ующих
государственный
2019
018
016
частич
##врат
способом
коммерче
приложением
##7300
Адреса
получен
замен
материалы
итогового
Краснодарскому
стандар
Приложения
Куз
Информационной
аппара
##битраж
статус
Продав
УЧАСТНИКАМИ
Алтай
квалифицированной
##now
ВАРИАНТ
СУБЪЕКТ
58
IV
unk
Воз
КГ
Указывается
бак
входя
груп
моск
школа
##его
##рен
##галт
##0002
наимен
##оканал
##кин
отзы
##ласт
реабилит
услугам
указанные
проф
##ОВЛЕН
банковские
ОБЯЗ
##учно
##овыми
##алея
приема
приняты
##есс
Муниципальный
ПРЕДМ
Постановление
исчис
Московский
Московская
капитального
любы
предъявля
телефон
экономического
включительно
относительно
привл
СРЕДН
инвалидов
продлевается
контактного
бухгалт
##nown
unknown
ОБЯЗАТЕЛЬ
52
72
Долж
Рост
Ряз
Сов
Содер
дост
сорок
##уж
##ые
##ЕГО
##ЕОБ
##див
##груз
##ЦА
##огда
отдела
стр
зад
##общ
такие
Федеральный
договорных
одно
##ИКИ
##иду
##КУТ
соответствующими
определен
##няя
401028106
представляет
приним
##асс
актов
технического
техническим
объему
финансового
ФГБОУ
пору
Минзд
происходящим
ЦЕНЫ
четыреста
телефона
ориент
выявленных
заполнению
помещений
дорог
миллионов
Контактное
Иркут
Нижегородской
теплов
Открытый
бакалея
москов
##дивиду
144
59
gov
НИИ
Сокращенное
УСТАН
док
значение
когда
##400
##40000000
##56
##900
##чение
##щую
##дачи
##анской
##олож
договоре
отребовать
Обяз
##020000
ценового
выше
документом
##лова
област
##ОСН
пят
ОБОСН
производства
порядку
##716
##ификации
ОТКРЫ
##ОЛНИ
помощ
Ограничение
имеющего
ПОДПИ
ОБЩЕОБ
утвержденным
контр
САМ
триста
одновременным
институт
Департамент
квалификационного
Возврат
ПРЕДМЕТ
бухгалтер
Содерж
УСТАНОВЛЕН
ПОДПИСИ
62
70
Внес
ГАР
Ек
ЕКС
Ист
ОЦ
Пункт
РАО
граждан
же
зн
количество
существ
##702
##КСИ
##el
##ГРА
##иту
##ари
##000006
соответствующее
подготов
##ющих
##лаго
засед
случаи
заявка
товары
##очник
2016
объектов
ОБРАЗ
числа
изменение
бюджетных
перечисляются
содержится
##ербанк
направляет
оформляется
##950
ремонта
##ЛОГО
реквизитов
необходимости
уменьшенное
##349101
МАКСИ
МАЛОГО
изготовителя
010349101
двести
Расчетный
администрации
Такая
квартиры
энергии
корпус
УСЛОВИЯ
отзыва
Ростов
Минздрава
##400000007200
ОБОСНОВАНИЕ
Содержание
МАКСИМ
145
ВТ
Сб
ЭА
здан
текст
улиц
эта
этого
##вис
##тных
##рах
##аний
##ским
неком
закупоч
Общество
##инский
##инга
гарантийной
которое
подряд
##ОВСКОЙ
##АНС
оснований
ПОЛОЖ
индивиду
##2000001
##струкции
потребитель
дефекты
уменьшения
шестьсот
включенным
поставляемый
семьдесят
Новосибирск
лекарственного
социального
бенефициара
Интер
отвечающих
Липецк
Южно
Собственник
Аукцион
банковскую
специалистов
ПОДРЯД
класс
удовлетворении
САМАР
Сбербанк
88
92
99
Алекс
Мар
Ник
Ом
Указан
Шт
ЭП
ЯКУТ
##603
##кВ
##53
##ВТ
##РГ
##рел
##анд
##анием
##ета
##огор
нез
##арод
ценовое
устрой
Прин
2020
##225
##ложения
##иру
объекту
##64300000001
основания
именно
Государственного
Правовой
первы
против
##НЫМ
технической
данный
##ированных
##ированного
платежном
##3500
выполняемым
Покупателя
ФИН
##ТОГО
Гражданско
вопрос
##иональный
подлежит
оператором
регламентом
несколь
Крым
ГАРАНТ
Екатер
ЯКУТИЯ
63
677
82
Киров
Матр
Орган
антидемпинг
лот
ном
пл
сокращенное
суще
указы
##опр
##ува
##67
##ели
##лого
##РИ
##держ
##юз
##ЫТЬ
##tr
##анская
общая
##олов
налого
закупка
##ацией
##альных
сроком
##чество
составе
было
предложивш
##ало
являться
##4537000003
##0100101
##ублик
обслуживания
приложении
край
процедуре
предоставляют
НАЧ
предложенной
замены
нарушением
оказываемым
карты
препарата
Красноярск
Мансийск
завод
Калининградской
вносят
МОГУ
##логового
печать
бумаж
подразде
редак
УТВЕРЖДЕНО
произошло
Должность
некоммерче
ПОЛОЖЕНИЯ
МОГУТ
51
68
Бал
Без
ГП
Ив
МИНИ
Рем
Суб
дать
доверенности
зан
ими
норматив
пов
см
тип
уче
##нит
##уш
##кам
##an
##РАН
##СЯ
##ём
##ово
##ателей
##огенера
сообщ
среди
##лагается
защ
Налогового
проведению
##иверс
полик
##СТЕР
##АНСИ
прек
2015
выполненные
##алом
ПРИ
аукционной
положениями
##ЛЬКО
собствен
неустойку
предмета
##2163
данных
универс
замеч
прикреплены
письменный
подлежащую
превышающий
располож
каждой
40102810945370000010
техник
Расход
Части
заданием
ТОЛЬКО
приоритета
используемых
СМСП
общеобразователь
##tom
Лицо
страны
запас
Аванс
Тюмен
официальном
истечения
40702810
ФЕДЕРАЛЬ
обучению
сверки
заказа
анализ
Общества
коммерческая
московское
Источник
существу
МАКСИМАЛЬНОЙ
САМАРСКОЙ
Матрица
Организ
##уваш
налогооб
НАЧАЛЬНОЙ
МИНИСТЕР
Ремонт
500
Ан
АВТ
БЫТЬ
Возмож
Верс
Ед
КК
Кур
Критер
МЕ
МЕТ
Мур
ОД
Пав
Сева
Уп
УП
Чуваш
сель
семи
сдачи
##матр
##043
##202
##601
##тий
##ром
##ТОВ
##ВР
##ХРАН
##ГК
обеспечить
предлага
обязано
ради
став
##011
##инбург
рес
просп
начальника
формирования
был
##СТРА
выполненной
Измен
результата
перегов
##ТВЕТ
именуемый
деп
##9805
объема
начисляется
специальный
расходных
##ернат
подписанного
двена
ограничениях
факту
##агнит
##ологический
поручении
карта
признания
будут
округу
уполномоченного
##ООХРАН
коллект
РКЦ
Электрогенера
Приволж
##РАВООХРАН
##оэф
интернат
004525988
количества
40102810445370000
ОКРУГА
ЗДРАВООХРАН
субподрядчиков
Барна
Кузб
групп
любым
ОЦЕН
##ГРАД
##лагоуст
ВТБ
ФИНАНС
Екатеринбург
номера
прекращ
налогообложения
Версия
Критерии
Севаст
D1
Мор
Тат
Факт
ШК
ак
ар
бал
достав
зат
культ
сбор
##10000
##671
##кон
##пор
##94
##тив
##ям
предоставивш
##вест
документе
каб
максимального
формате
##ицион
##45000000
предложенных
##ировке
##остоян
поставщику
##ОРО
проекту
220
##зыск
недобросовест
##ОЛА
##5100
уклонения
подлежащей
других
распор
Постановления
##ОДИКА
следующее
понесенных
##щиеся
##1051244
автомат
ввода
Информационная
Сахалинск
Настоящий
непредоставления
назначении
внутрен
##матри
Конкурс
СУБЪЕКТЫ
СРЕДНЕГО
Совет
поручения
тепловой
Внесение
ПОДРЯДЧИК
антидемпинговых
поликли
Авансирование
МЕТОДИКА
ресур
коллектив
Электрогенерация
##оэффици
ЗДРАВООХРАНЕНИЯ
ШКОЛА
недобросовестных
57
53
61
ГКУ
Граждан
Дан
Магнит
РБ
акционерное
бан
взыск
ох
ры
рав
##ажет
##206
##607
##кция
##ИБ
##in
##гент
##ОТВЕТ
##этап
##ЩИЕ
##енко
##енбург
##ости
налогов
союз
Област
##ющий
запис
электронная
установлении
выд
00716
качеству
##евича
поле
##ическом
##ОНОМ
Сто
подписы
019805
авансовых
##ТВЕРЖДАЮ
##ическими
перечислены
##СТВИЕ
Москве
Участника
продолж
СООТВЕТ
##ализ
всего
времен
предмету
данные
оформлено
вида
##емпинга
КОМ
Постановлению
ПОДТВЕРЖДАЮ
изделия
ТРЕБОВАНИЯМ
выбора
сведений
Красноярскому
301018101
уполномоченное
Оренбург
атомная
промышленных
Западное
Кемеровской
выбирается
##исправ
Волгоград
соисполнителей
докажет
УСТАНОВЛЕННЫМ
заседании
подряда
классификации
Александ
вопросам
АВТОНОМ
##450000007300
Магнитогор
007162163
019805001
СООТВЕТСТВИЕ
ПОДТВЕРЖДАЮЩИЕ
001
47
86
89
Два
МАНСИ
Нац
ХАН
демпинга
коэффици
лист
мень
межд
остав
спис
треб
цел
##ивается
##мя
##ым
##502
##301
##90
##ья
##гла
##ён
##МАТЕЛЬ
##енд
##анавли
##ите
##ких
Закон
соответствия
##альные
##лах
указанную
##истра
##опол
##ействия
##00045
208
посе
лицевой
наличие
изменен
##ТАР
##ирекция
расчете
представителя
Краев
##имость
перс
техническому
##980000001
ФОРМА
автономному
медицинской
ранж
реестра
РАС
регулир
несоответств
карте
КОТОРО
##45370000007
устранить
Министерства
40102810245370000007
возникнов
девятьсот
Лицевой
связанных
дорож
показателя
Липецкой
присво
программно
##стройщик
ПРЕДПРИНИ
гражданским
граф
частично
професс
предъявляемые
ОБЯЗАТЕЛЬСТВ
задания
одноэтап
Обязательства
##ОЛНИТЕЛЬ
Штука
вносятся
Расходы
общеобразовательная
Барнаул
ФИНАНСОВ
Гражданского
##ИБИР
записи
МАНСИЙ
Национальный
ХАНТЫ
Бенефици
Генерального
НГ
ОС
РС
ХА
знач
контра
нос
нового
праве
сан
циф
##иск
##ну
##кар
##еку
##atom
##КЛ
##57
##чат
##рь
##фер
##on
##структ
##акта
##анч
##ика
##осн
##един
##ентов
##01000
##ственные
должност
##ОВСК
разре
перест
перетор
отказаться
##лючение
##635
инструкция
оказании
РОССИЙ
03224643400000007200
финансирования
открытом
платежного
платежным
получение
юридического
возможности
Закупочной
признанным
Комитет
необходимых
низкого
семьсот
Основ
покры
Ленина
Работа
Администрации
страх
Сахалинской
помещение
хозяйства
Кемерово
МОСКОВСКОЙ
Ленинградской
этих
наступления
наклад
высшего
аппаратных
Продавц
реабилитационный
ОБЩЕОБРАЗОВАТЕЛЬНОЕ
ГАРАНТИЙ
предложивший
печатью
Безотзыв
заняв
университет
Мурм
проспект
переговоров
поликлиника
##МАТЕЛЬСТВА
КОТОРОГО
присвоен
ПРЕДПРИНИМАТЕЛЬСТВА
должностное
002
510
93
ten
Дон
Мет
МКУ
ТУ
Фамилия
бес
вск
ен
жилищ
санк
член
##аре
##ающего
##елах
##ИВ
##323
##роб
##ТУ
##ТС
##жил
##фа
##or
##der
##станов
##отъем
##икс
##остовер
обеспечитель
пределах
##оратор
предоставил
##чев
##ублич
Россия
##ующие
полного
##НОСТ
организация
ЗАП
произвед
Проекте
имя
##085
##СТВО
##051
победителю
БАНК
обслуживание
образом
предложенные
передать
комплек
Покупателем
Форме
включенной
удостовер
карт
районная
содержащиеся
низкое
возвращается
Предметом
МУНИЦИПАЛЬНОЕ
Приложением
ТОФК
устранение
Курган
##5004
Юридическое
вторых
https
дополнительным
Центральный
согласованию
Тюмень
Югре
автомобильных
сметной
конкурсной
40102810545370000
40602810
ТЕХНИЧЕСКАЯ
Ответственное
привлеч
Никола
основаниям
бумажном
редакции
Балаков
распоряж
перестало
tender
вскры
##отъемлем
403
69
94
Вер
ГА
РО
Стра
Сер
Тел
ФКУ
пар
сет
списание
топ
фикс
##них
##ача
##уки
##уют
##ыт
##407
##ИХ
##ИТЫ
##533
##901
##ts
##осток
##остроитель
налог
националь
##ельной
##инская
поддерж
##лачи
##оев
##нев
##над
указание
указанному
каче
##ируется
договоров
проведение
поставленное
##АНИ
2014
соответствующих
015004
операций
устанавливаются
определении
казначейского
##НИСТРА
отдельном
исправ
Застройщик
ИЗВЕЩЕНИЮ
технических
##АЛЬНОГО
Республиканская
Главного
##МИНИСТРА
Самара
##45250000
поручитель
возмещению
последств
МУНИЦИПАЛЬНОГО
Мансийскому
РЕСПУБЛИКИ
реестровой
##tor
характеристикам
Электрос
третьих
лицензии
принципала
любой
АДМИНИСТРА
##спорное
наименования
определенном
Иванов
замечания
ФЕДЕРАЛЬНОЕ
Возможность
Кузбасс
банке
Двадцать
Краевое
ранжировке
одноэтапный
носителе
занявшим
бесспорное
санкций
015004950
76
84
Бюджет
ВЭ
Вод
Гор
Дирекция
Публич
Уд
ФБУЗ
Чита
гиг
дол
ед
жизн
кур
много
отра
пуск
утра
характ
элем
№5
##205
##84
##122
##60000
##КВ
##93
##ТИЕ
##ЕЙ
##РСК
##ДОУ
##бай
##ОЛЬ
##БО
##ЦП
обосн
##ике
##год
обеспечивать
##кина
отоз
предоставлен
##ников
##0200
гарантийными
прилагается
решению
##220003
пропор
##деле
банками
##ранс
##естить
осуществление
##0005
03212
##жек
Сроки
##035
которому
требованию
включения
отсутствия
неисполненных
документацию
подтверждающих
технические
##аборатор
снижены
использование
этапу
подписанным
Устанавли
##ТОМ
Казань
указано
ИНФОРМАЦИЯ
ОрВД
Победитель
Госкорпорация
подаваемых
Воронежской
КОНКУРСА
Саратовской
rosel
РЕКВ
044525411
экспертизы
##ИЗИТЫ
ограниченной
корпорацией
КГБУЗ
4010281064537000005
принимает
Иркутск
подготовки
ОБРАЗОВАНИЯ
этаж
Омск
союза
30101810145250000
листах
Безотзывная
##torg
ВЭБ
Публичное
характера
пропорциональ
Устанавливается
roseltorg
РЕКВИЗИТЫ
30101810145250000411
АК
БОЛЬ
Вос
Мед
ПОР
Сред
Смет
СЕВ
Таг
Туль
Цены
благоуст
ген
ему
лаборатор
права
сод
##иены
##оф
##уз
##уча
##095
##775
##81
##УЗ
##501001
##бов
##брь
##ЛИНИ
##БАР
##ший
##енная
##стве
общей
##ктор
##оруж
##ико
##одор
исполнено
##осна
гаранту
##емат
##ательщик
отм
отмет
##00000
##онала
участию
##017
##025
##023
##инского
средняя
##лачен
таком
##истр
лицам
поставленный
муниципальные
организатора
доход
013
кредитованию
169
ДОП
дополн
производят
проектно
проектной
Государственные
##080
##0000003
##0000000244
03224643450000007300
снижение
Петербурга
##4800
меропр
##01800
##190
компания
регистра
нарушение
Коми
Комп
обязательно
выбра
Волга
каким
Преимущество
свойства
##ифров
исполнительной
отвечать
Южное
приведен
Перм
40102810345370000085
Тома
4010281084537000005
принципалом
Евразийского
ответственность
ответственностью
знаков
##ариант
нескольких
подразделу
Субподрядчик
запасных
ОЦЕНКИ
Татар
выдав
коэффициент
топли
гигиены
содействия
отметкой
мероприя
495
616
rts
Боль
ВОЛ
Дет
Исп
Лен
Лот
МВД
ОМ
Оформ
Пять
Там
Теле
Ураль
ЭЦП
Ярос
иного
ко
лин
нет
сир
уг
эп
##ила
##нг
##72
##коль
##ковый
##АЛ
##УЖ
##ПК
##лечение
##НГРАД
##фон
##ЛЕНИЕ
##БА
##шений
##st
##страх
##овая
объ
обращ
##оры
##орта
##иям
неотъемлем
закупкам
отклон
Заключение
##аром
##арной
##люча
ценой
##ющей
зарег
приобретение
##ействие
##ицины
часов
##0011051244
осуществить
##идеми
0127
012202
##030000001
##01001001
Государственному
коммун
##кова
##НИЦА
инвест
оказанной
содержит
##екл
##0000006
##ИЯТИЕ
направленное
медицины
Получателя
образователь
Подписи
почта
Заявке
поним
поручительства
признании
обязательных
Капит
##ЧЕСКАЯ
содержатся
Соглас
претензии
согласованные
специализ
Привлечение
Югры
функциональные
##701000
ФЕДЕРАЦИИ
выбирает
##000008700
ПРЕДПРИЯТИЕ
Арбитраж
##718000008700
оригинала
ориентированных
##20000012201
потребительские
Организатор
МИНИСТЕРСТВО
##матривать
культуры
между
переторжек
РОССИЙСКОЙ
национальной
Кузбассу
БОЛЬНИЦА
ДОПОЛНИТЕЛЬ
Оформление
Ярослав
сирот
эпидеми
зарегистр
012202102
##030000001800
эпидемиологии
Wor
Алек
Астрах
Вят
ИМ
КРИ
ЛС
Один
Офици
Пос
СВ
УНИ
вступ
зависим
кров
па
сад
теку
факта
##нак
##наз
##аче
##мо
##ущ
##712
##1001
##400000000
##401001
##каль
##ПИС
##3001
##30001
##96
##ье
##догов
##СА
##СНО
##ЙОН
##rb
##стан
##овский
##онда
оборон
обоснование
##003
##олен
##ечении
находя
научно
обеспечительного
преддогов
##овании
##емое
пож
##огод
##ленным
ценовых
##лектронной
электронный
Прик
документах
указанными
лицу
полное
##СТР
предложил
0373
207
##езд
требованием
##овым
##СИН
перечисляет
перечисленных
городской
обеспечива
Право
221
СОЦИ
##ижения
предпринимателя
площадка
принято
Стороной
момент
##2000003
здания
безотзывную
22271
Разъясн
замене
филиал
юридическое
№013
убытки
размещает
размещенного
включенном
ЗАПРОСЕ
управление
Вологод
уведомление
ЗАЯВОК
правилами
##45370000004
##45370000003
ТОМ
изготовителем
ВОЗ
СМП
заполняется
атомной
##оэлектронной
КАЗ
rosatom
обучение
40102810845370000004
004525987
КРАСНО
40102810545370000003
начинает
АДРЕ
зданий
закупочного
Принцип
плательщик
учесть
ПРИЛОЖ
радиоэлектронной
двенадцать
40102810445370000043
Магнитогорск
профессиональ
ХАБАР
ГАРАНТИЙНЫХ
комплекса
0321264300000001
Тамбов
Телефон
Капитальный
Word
преддоговорных
71
81
83
91
Вре
Оцен
Сал
Сург
Сибир
СИБИР
ТП
Тр
Теп
Уфа
вес
введения
вариант
мат
мар
ни
тра
##иля
##ни
##сы
##вш
##165
##4000
##62
##606
##ИП
##ЕС
##блюд
##бжения
##ОДА
##БАН
##ФСИН
##et
##рест
##релия
##авт
наст
наиб
исполнителю
##ляемых
неисправ
закупку
поль
##аций
##амента
##ары
предоставляющ
##альная
##027
##инск
гарантийным
централь
##вести
оплата
опублик
пригла
рекон
##ЕННОЕ
##надцати
Научно
поставить
105
##евна
##ОВА
##ансион
##4500
выполнить
0165
0164
результаты
переход
подрядчику
конк
упаков
##0100102
отдельности
испыт
акте
##НЫЕ
направляется
ИЗВЕЩЕНИЯ
##980
##аблиц
заключение
рассч
замена
##овано
##ортив
заключенного
Смолен
являющимся
приказа
Техническая
Техническим
поручением
содержащая
необходимого
Карелия
места
месту
Красноярского
Челябинской
Мансийского
##ограф
Примор
руководств
приоритете
##артамента
010407
##аторий
осуществляющих
включать
Победителем
ГОРОДА
##довия
официального
присва
Настоящая
##НАТ
оплатить
Владимирской
вносит
строя
##РГАН
##ируются
некоммерческих
сообщения
##роме
ставки
Изменение
Мордовия
арбитраж
коллективного
рын
меньше
##980000001600
поддержки
##оевремен
поручительств
40102810645370000054
##77551
Татарстан
мероприятий
инвестицион
Алексе
КРИТЕР
Вологодской
ПРИЛОЖЕНИЕ
Время
Оценка
##ансионат
016577551
010407105
73
806
812
828
98
Волог
Ген
Жилищ
КУ
ЛЕНИ
НЦ
НОВ
ОЗ
ТА
Эл
аб
би
ве
ди
декл
ей
км
мол
состоян
там
ум
убор
функци
ый
язы
##ино
##цкого
##708
##623
##50000
##3001001
##ян
##яти
##ябрь
##рская
##ТИ
##ВЭ
##ба
##эр
##ЭЦ
##ЮЩ
##ЦЫ
##ноч
##еть
обе
обжа
##омат
##имых
него
##оработ
отчество
##арь
растор
##ицк
участка
структ
##014
##019
##ленности
##ерес
##ющие
срокам
решением
выра
вычет
##ународ
Про
пропис
##ительным
Договоре
действует
##мена
составляется
банкам
##ранение
одним
##естр
##0013
##450
037
соответствующий
соответствующая
##3700
результатах
перев
переч
конец
определены
##провод
перечисление
порядка
порядковый
подтверждающего
##050
представлен
инф
Дополнительные
изменениями
отдельно
03224643718000008700
медико
техническими
##736
Получателю
##6100
предоставляемая
ГОСУДАРСТВЕННОГО
причине
комиссией
валюты
региональ
обстоятельства
включенных
включенными
возвратить
основное
обязательным
##ятой
утвержденный
детский
Управления
Мосвод
Приложении
Установлен
##3207
округление
суде
используемой
монтажу
электрической
Центрального
физическим
запятой
относится
функциональным
они
сверку
заверенный
предусматривать
судебном
заменой
принятых
исчисляется
исчисляться
пятнадцать
помощи
помощь
1451
тексту
улица
первый
техники
Тюменской
предлагаемой
группы
Александров
целого
поселения
##ТАРНОЕ
возникновения
Дону
жилищного
АДМИНИСТРАЦИЯ
генет
##ематическим
неотъемлемой
Согласовано
ИМЕНИ
УНИТАРНОЕ
Сургут
весь
математическим
##БАНК
центральная
расторг
405
Атом
Ви
ДЕТ
МБУ
НЕ
НО
Од
Окт
Сы
Состав
Трид
ФБУ
вла
доб
дисп
ие
кроме
ор
оказ
она
род
ризн
сдел
тем
фун
##оче
##опровод
##вид
##цк
##ыв
##82
##85
##4020000
##елен
##ank
##КП
##яются
##жнейш
##ex
##енность
##анного
общим
##атов
##атся
над
науч
обеспечением
##ервис
##ований
нек
##ательного
отгруз
пош
##оналад
подк
счете
##ющим
Обеспечения
опы
##необ
##ственным
осна
##223
проч
##ирующих
максимальное
составленного
внесении
##кую
Приоритет
##оза
##ольз
##очное
##очная
Строитель
Подача
##иться
##0004
##0006
209
Исполнителю
013207
##числение
ОБРАЗОВАТЕЛЬНОЕ
##водит
Отсутств
поступил
##дание
##4537000006
производственных
производству
ИНТЕР
##уста
##063
перечисленной
городе
##тифик
##076
подтверждающими
Участниками
именуемая
оказанные
Представ
отдельные
Поставку
отсутствие
Забай
принятого
##рио
##хождение
подтверждающую
приложения
##22000013
ОКВЭ
##332201
процедур
иностранной
Перечисление
расходам
##радостроитель
важнейш
##22002
РАБО
##4600
трехсот
пеня
комплекс
##ологического
ОБЩАЯ
Комисс
согласия
Особ
единстве
##7400
Калуг
Калуж
ПОСТАВКИ
4112
промышленности
физическое
##РАВЛЕНИЕ
торговая
инженерное
строительство
строительству
##ЯДОК
комплектующие
40102810245370000011
нормального
оплату
метод
сертифик
ГОРОДСКОГО
ограниченными
Спецификацией
областная
ОТКРЫТОГО
индивидуального
повтор
Павлова
затрат
предоставившего
Бенефициаром
обеспечительный
Серг
Электросервис
Водоканал
жизненно
пусконалад
ПОРЯДОК
Смета
Тульской
##оснабжения
ВОЛГО
##лючается
понимается
ДОПОЛНИТЕЛЬНАЯ
зависимости
КАЗЕННОЕ
СИБИРСКОЕ
016401800
Вологда
тамож
функционала
прописью
Мосводоканал
ризнанным
##4020000332201
Строительство
013207212
ИНТЕРНАТ
Забайкаль
ОКВЭД
важнейших
044
225
56
503
505
87
ast
sb
Ак
Бу
Во
Груз
Кар
НПО
СБ
Тер
ФМ
Юр
Юго
диз
зем
кан
мон
мот
мод
мера
ним
ов
оз
пс
платы
сек
##ины
##ач
##сле
##ула
##044
##710
##7220000
##ести
##ar
##at
##АЮЩ
##926
##товой
##ЕП
##НОВ
##густа
##ОП
##ОПО
##ХО
##зац
##ЧЕН
##МП
##bank
##оваться
##рев
##ножения
##етр
##отрансп
##еспечения
насе
налад
##окс
исполня
предназ
##ляющего
ней
нека
невы
сооруж
обязательствам
предоставлена
соответствуют
##ицы
гарантийное
выступ
Проч
Федеральной
указана
максимальную
разместить
составляющ
##ихся
##евр
##евого
году
##0010000244
##кад
осуществляет
##очные
банковского
##43001
458
муниципальное
выполнению
059
казнач
свое
2013г
концерн
конструкт
##ходится
##ЕЛЕНИЯ
401028101
Реестр
1352
всем
##061244
##121
расчеты
##лоэнерго
позв
##082
комитет
##633001001
СОШ
##асса
дел
ГУЗ
ГУФСИН
ДОКУМЕНТАЦИИ
автотрансп
данному
##ировании
специальном
платежи
##48051
Электронная
уменьшению
другую
##660
прилагаемый
##онтаж
несостоя
##аги
являющихся
размещается
##коменд
увеличения
первой
ОГРАНИ
местное
дома
Мансийский
руководству
приоритетов
##erbank
атомных
промышленной
миллиона
подава
технологическое
технологического
печати
МОСКВЕ
407028
станциях
обнаружатся
##лизации
##ьевича
бумаги
4010281074537000002
406028
начиная
Протокола
Евразийским
высок
оригинал
судебных
замену
Рязанской
доступ
пятнадцати
Марий
независ
первых
нормативными
Анат
Чувашэнерго
баллов
Областной
персональ
несоответствие
цифр
##анчиваться
ТУЛЬ
членов
##ИХСЯ
курса
Ленэнерго
012748051
Разъяснение
наиболее
предоставляющим
присваивается
КРИТЕРИИ
умножения
структур
вычетом
перевоз
опыта
оснащ
трехсотой
Калуга
sberbank
ФМБА
псих
##ОПОЛЬ
предназнач
некаче
ОГРАНИЧЕН
40102810745370000024
245
4кВ
64
97
arb
Врио
Ев
Един
Зелен
Ков
ЛУЧ
Пуш
ЦР
Эк
ЮЖ
влия
газ
доработ
жиз
ле
ноя
орг
титу
##сь
##вая
##ураль
##цов
##хоз
##745
##кими
##az
##АД
##АМИ
##Ком
##ИЦ
##50000000
##тии
##itr
##ion
##ВА
##ДАНИЕ
##фт
##функциональ
##земп
##ФЕС
##шед
##шифров
##школь
##ГМУ
##ЧЕНИЯ
##Энерго
##енции
##рект
##оневр
##аку
##анные
##кта
##ктыв
##аторов
##ору
##омин
##ават
наблюд
##имо
исполнительного
##ерного
соз
отдел
отправ
поп
##ейся
##енты
стомат
##022200
##изации
##изация
приём
реализ
##ственной
##проект
када
##ейства
##ирующ
начальную
провер
составлен
##ансер
преимуществ
августа
##енаж
муниципальному
дошколь
##ЕРБАНК
##алли
казенного
##ченко
0187
поставщиками
##000000008
ЗАДАНИЕ
ОБУЧ
##0285
##личного
безд
определенного
копия
##СИОН
Гарантии
Проекта
применении
имуществ
экземп
##ковник
представления
##рян
##асия
ПРОФЕС
##НЫМИ
##20000244
##2101
данной
данном
автономный
предоставляются
финансовых
##ТЕЛЯ
специфик
##483000
рассматри
этапов
##240
материально
РАД
РАЙОН
##185
файле
имеющим
##ясь
каждого
03222643980000001600
описанием
признан
обязательные
низкую
##ятнадцать
Карел
##ЧЕТА
контакт
жилой
##щихся
монтажа
препарат
предъявленных
##akaz
##СУСО
выявлении
СМР
дополнительного
Центральная
Победителя
единственному
##ажу
##ройство
удержания
удержание
показателей
##руктажу
инструктажу
Белоя
административ
##ener
истечении
критерия
4010281044537000002
завершения
##мунЭнерго
предусматри
ТЕХНИЧЕСКОЕ
30101810400000000
ГОРОДСКАЯ
гражданско
##шихся
Спецификация
Хабаровск
Рязань
ОТКРЫТОМ
контроля
6203
##0000062201
указывать
департамента
Приволжье
Севастополь
внутренней
ресурсов
охра
##КЛЮ
разрешение
Мурман
##чевой
распоряжение
Бюджетное
отрасле
СЕВЕР
топлива
Больш
уголов
Арбитражном
кровли
АДРЕСА
плательщика
Салават
##1650000062201
насто
опубликования
конкрет
абзац
Октябрь
Сыктыв
Тридцать
диспансер
##необеспечения
СБЕРБАНК
Прочие
##кадем
казначейства
Реестровый
руководствуясь
персональных
психоневр
arbitr
жизнеобеспечения
ноября
##КоммунЭнерго
##500000005100
##шифровка
экземпля
КарелКоммунЭнерго
071
300
346
Zi
Аэр
БУ
Брян
ВЛ
ВЫ
Гра
Доля
ИТОГО
КОС
Квар
КЕМ
Мест
МАУ
Ог
Оле
ПУ
РАН
Сп
Сим
Счет
Течение
ТОВА
Уль
Фед
Чеб
ас
аг
ант
идентификационный
клю
лог
мм
маж
назначение
пг
пад
срав
тол
ут
члена
##инт
##иска
##нению
##нич
##алю
##сид
##оча
##возм
##ца
##ывается
##201
##802
##813
##602
##ками
##кредит
##па
##ИМ
##302
##303
##386
##ятия
##янов
##щита
##ДО
##НЦ
##НСКИЙ
##фис
##БДОУ
##ЫХ
##шие
##шее
##sk
##ГС
##ЧЕТ
##МА
##go
##енов
##овещения
##реч
общего
##орс
##отор
##иков
##ость
науки
находится
##чает
##итр
гарантам
нежил
отделение
Объ
Объем
стацион
##0101001
изб
работе
##лекту
оповещения
статье
##2244
##220000003
действий
формируется
внесено
качеством
##ностями
##евая
расшифровка
##ольск
##ольская
государственному
Способы
##вый
разум
разгруз
##НОМ
##4300
##ителям
03100
гарантиях
казён
015
0137
01190
1289
115
котировочной
##033
правами
упомин
безвозм
определенных
определению
Рег
Результат
##одерн
##01001000
изменении
бюджеты
##1202
расчета
ПОЛ
##074
##0001061244
окончании
##630
субъектам
актами
протяж
Датой
направить
##АРОД
##753
техническое
техническом
включает
##6101
эксплуатационной
##ированным
Опера
##еллекту
информационную
ЭЛЕКТРОННОГО
оформлению
начисленной
специальные
##20002
##770
##ЛОГ
филиале
материал
КОМИ
стороне
№014
другие
##логич
исходя
размещен
##2908
ограничительного
основных
едино
Разделом
постановления
задании
Центра
Красноярский
совета
Утверждено
окончательное
Орд
силами
отчетности
количе
удержать
УЧАСТНИК
итогах
Услуги
Югра
совместном
интеллекту
ГКБ
спортив
##атели
КРАЯ
Колом
энергет
Ленинградская
044525225
4010281074537000003
блокирование
##ционный
4010281004537000000
ГОСТ
федеральное
Хабаровскому
привлечения
собственность
анализа
УПРАВЛЕНИЕ
доставки
ресурс
временное
оставшихся
списания
##ополуч
РАСЧЕТА
дорожного
МАНСИЙСК
ОСНОВ
##ферополь
##робные
##НОСТИ
организациями
Курганской
вскрытия
Верх
налоги
Удэ
утрат
отозв
Медицин
Вятское
После
##сыл
испытаний
содержащаяся
руководствоваться
деклар
обжал
родителей
надз
Комиссии
Калужской
пусконаладочных
дизель
монит
##АЮЩИХСЯ
несостоявш
подаваемая
ОГРАНИЧЕННЫМИ
ЮЖНОЕ
титулу
наблюдательного
попечения
ОБУЧАЮЩИХСЯ
##СИОНАЛЬ
ПРОФЕССИОНАЛЬ
30101810400000000225
отраслевы
уголовно
Сыктывкар
КЕМЕР
Симферополь
ТОВАРА
логист
пгт
падения
##220000003200
0310064300000001
011909101
упоминании
безвозмезд
протяжении
40102810745370000032
043
0000
400
525
508
Введ
Восток
Дм
Даль
Дев
Доверенности
Зав
Зуб
ИС
ЛР
Межд
ПН
ПС
Пен
Поп
ПСП
Систем
СТА
Таблиц
УЛИ
Улан
ФПК
Фонда
Шесть
агент
го
информ
маш
останов
офис
полн
плат
риск
форс
хим
##мы
##701001
##83
##806
##171
##174
##402
##661
##кса
##еш
##al
##лот
##ьют
##щему
##ЕЦ
##РЭС
##НАУ
##до
##жных
##гна
##бе
##ЛР
##ЫМИ
##ЬЯ
##шает
##электр
##ЧИКА
##om
##рай
##раты
##онав
##ани
##анг
объяв
##атент
##отранс
##авиль
##реде
исполнил
##ованное
нем
##лес
закупаемых
##емнадцать
##едение
##000003
##онахождение
##0173
##01500
##умя
рабоче
зачис
приводит
реаг
##ЕННОСТИ
установки
##ственными
##налич
##220
##ительных
Налич
##опож
##ирт
рублю
поставленные
106
103
извещений
полномоч
##чёт
##естнадцать
систему
##АНИЯ
осуществлению
##0009
##реждения
запросу
подписано
##ироваться
##емыми
##377
Извещении
166
165
1663
размеру
конструк
поступления
правового
##респондентский
допущ
Полное
##068
##тых
##073
подтверждении
##0501001
возврате
##6311
##НИИ
Гарантийное
адреса
##7100
перчат
##110000
##0000004800
Сторону
Стороне
0322464346
03224643030000001800
190
приложению
свою
своему
недостатках
##ированные
протоколом
медицинский
медицинские
начисления
финансам
НАУЧ
ОБЕСПЕЧЕННОСТИ
Разработ
##7746
##1920000012201
Единым
подписаны
двумя
комиссия
№1005
размещено
имеют
торговыми
##оверш
поручение
увеличи
обязательности
Краснодарского
##3601
месте
Новосибирский
014206
суда
уполномоченным
развитии
свойств
ПОСТАВКУ
Правительство
Победы
обнаружения
распространяются
##590
сигна
показатели
Запроса
копейка
третьим
Первый
##9205
регламентов
Белгород
Владимиров
количестве
##ьевна
Корреспондентский
##00000822005
2007
2006
склад
аналогич
Работы
##ЕВО
разработана
стандартом
Продавец
принятыми
контрол
знак
корпуса
заводом
защиты
МЕСТ
Уполномоч
УПД
сельского
аккредит
Данное
подписыва
продолжитель
АВТОНОМНОЕ
АВТОНОМНОГО
графы
графе
ФИНАНСОВЫМИ
значимость
##нуть
накладной
0020285
40102810545370000028
Страна
сетей
##лачивает
исправления
последствиям
наименованиями
многофункциональ
элементов
обоснования
Восход
Средства
Детский
Использ
пожарной
СОЦИАЛЬНОГО
КРАСНОЯ
ХАБАРОВСК
реконструкции
перехода
арбитражного
диаг
языку
некотор
##220000132202
Особенности
Грузополуч
наладки
сооружений
составляющие
предназначенные
орга
создан
дошкольное
РАДОН
Белоярская
##energo
СЕВЕРО
психоневрологический
Ульянов
Чебокс
ключевой
сравнению
Объедин
интеллектуальной
отраслевым
КЕМЕРОВО
Пеня
УЛИЦА
Наличие
03224643460000004800
НАУЧНО
014206212
сигнализации
Используется
некоторых
045
391
551
603
628
79
831
9A
901
in
АС
Блок
Вас
Губ
Гаг
Голов
Градостроитель
Дол
ИВ
Клин
МН
МЗ
МРСК
Нер
Ок
ПК
Пир
ПРАВ
Со
СЛ
СОН
Служ
ТЕР
ТГК
Факс
ЮГ
ая
антидемпинговые
академ
вм
вет
кам
крес
ль
лик
меж
них
план
свет
ссыл
уров
фир
эн
это
##ище
##исти
##ние
##аемой
##со
##смотр
##уются
##ыва
##271
##211
##1643
##100045
##637
##пт
##АТ
##УН
##ИНО
##351
##30003
##902
##топ
##лить
##ях
##яет
##ЕЗ
##СШ
##Соб
##Хи
##зид
##ФА
##ЯМИ
##ЙСТВА
##ёж
##ёма
##МС
##МЫ
##МЕР
##ul
##енс
##рез
##анный
обществ
обремен
обработ
обрат
##ату
##аточ
##ороссий
##омор
##авшего
##еспе
##лека
соот
##едующ
##арм
##арий
Образ
##альное
##альным
##ленному
##извод
участнике
счетов
##лада
##обр
##обиль
##уда
электронных
установка
выгод
Проре
##пром
статьями
##укция
##22926
кабин
установлена
установленное
составления
проведенной
104
товарной
##евский
##ОВЬЯ
##СТОВ
выплачен
преп
##106101
##456
##НОЛОГ
##433
муниципальный
0535
подписать
объекте
Извещением
0171
перес
119
##039
##ОРОВЬЯ
поступивш
##ило
устанавливает
произвести
требовании
##ЕЛЯ
##ставления
производителем
##ЕДОВАТЕЛЬ
##меть
##120
Государственной
Государственным
##адлеж
##254
150
152
конкуренции
##тые
представленной
иннов
инстр
принадлеж
НМИЦ
субсид
двадцати
Крас
##11220000
субъектом
актом
актив
следующий
Положении
подтверждающая
здоров
##2101001
эксплуатироваться
данное
лицоСоб
Новороссий
##ившими
##956
письмо
Раздела
Разделе
##7729
##356
##278
материала
передав
стороной
юридическим
##ензи
возможностями
движения
компьют
Закупки
включены
##яться
Рослес
Устранение
приказу
Конст
##3901
##МОЖ
районе
описанию
согласие
ответственное
жилое
жилых
постановление
уменьшается
Чапа
Мосжил
##45370000006
Установлены
Челябинская
014106101
##30002
##СУРС
используемые
клинический
изготовления
##00100100
рублях
mailto
дополнительно
дополнительных
возникших
распространяться
РКБ
характеристиками
##СЛЕДОВАТЕЛЬ
ТЕХНОЛОГ
исследований
Автом
приведены
оператору
автомобильной
КАЛИНИ
минималь
привлека
обнаружении
обнаруженных
РЕСУРС
критерии
критерию
квартиру
##улирования
40102810745370000006
ЗДОРОВЬЯ
301018109
Арх
метр
сервис
федерального
корпорации
входящего
входящее
реабилитации
достовер
дороги
имеющегося
бухгалтерской
Ростовской
несколькими
указываются
защите
собственности
расположенного
Тюменская
Анд
прекращения
сборы
Советская
Волгоградской
контрагент
санитар
страхования
Продавцом
ЗАПАД
произведено
вскрытие
фиксируются
Застройщиком
долевого
отменить
регистрации
рассчит
ортоп
пошлин
##озащита
повторно
Серге
50322926
мерах
населения
конструктив
позволя
цифровой
ТУЛЬСКОЙ
структурированного
Евг
ЦРБ
##ректиров
40102810445370000022
620333
График
Квартир
толк
##интерес
Заведующ
ИССЛЕДОВАТЕЛЬ
Международ
ПНР
##НИИпроект
увеличивается
МНН
Пирогов
общества
Проректор
инструмент
лицоСобственник
Рослесозащита
МосжилНИИпроект
ТЕХНОЛОГИЙ
КАЛИНИНГРАД
ЗАПАДНОЕ
ортопед
5032292612
ИССЛЕДОВАТЕЛЬСКИЙ
028
0105
2105
600
722
800
878
997
xl
yan
БА
Бай
БАР
Вал
ВНИ
ГРА
ГНЦ
ДЗ
Дуб
Деся
Еле
ЗНА
Иск
КТ
КЦ
Кам
КЛИНИ
Лю
Лес
МФ
МТО
Меж
МБДОУ
Народ
Опис
ОПР
ОРГАН
ПП
ПИР
Рус
СК
Саль
Семь
ТК
ТР
Тро
Тур
ТЭЦ
УТ
Хар
ан
вне
гар
где
др
дав
иметь
лит
лич
мп
новой
ое
пп
публик
пансионат
павиль
пище
рент
сост
слов
спора
сокращ
тор
требовать
транс
шаг
##ап
##оедин
##вание
##воевремен
##мин
##ыми
##761
##207
##20244
##445
##418
##кр
##кции
##пов
##av
##ИЧЕ
##525
##3005
##903
##912
##тодор
##лений
##яющий
##рот
##рова
##щем
##ЕЦИ
##РМ
##гра
##гражд
##бол
##СМ
##СОН
##ЗА
##МТ
##МЦ
##dex
##ШЛЕН
##стью
##раструкт
##рета
##анных
##анский
обуча
##кторов
##ата
##атай
##орот
##ечеб
##года
##осточное
обеспеченности
##имые
##окз
##огруз
##ляемые
##ерт
прим
прок
прое
##упать
##ось
##осова
##лифт
##едом
котельной
строк
##никова
##0201001
##0204
##02101
Заказчике
подрост
уступать
##мотре
заинтерес
независимо
##жды
##обрета
приобрета
рез
рекоменд
заявках
электронным
##ственный
##222
##ительная
##итывается
поставленных
##ловская
##ивосток
##евск
##евского
##евская
##ОВСКОГО
часа
были
##00143
##ольного
преры
преста
государственном
осуществлено
2012
Стол
##452
##вых
20736
учреждений
0591
0519
##льтерн
Исполняющий
##мины
##ченного
##ледж
0175
012908
010173
ЗАКЛЮ
ОБЪ
160
##чины
Отдел
Отмена
##ехан
##230
##238
##230000
безналич
##ЕЛЬ
Рекон
##оскоп
бюджета
##060
положением
Государственная
Гаранта
##ационных
применению
##няет
##250244
##08000000
##079
##07000000
комбин
исключается
2237
инв
Участников
##ЛЬНЫЙ
ДОКУМЕНТОВ
ПРОМЫ
##0000003500
принятии
03224643500000005100
0322464307000000
применяет
##ляющей
##боров
##9100
##910000
##755
##22000024
Получателем
эксплуатирующих
Петров
##ированный
снижении
##0400
ЭЛЕКТРОННОМ
предоставляемой
финансовыми
заменить
заместитель
надлежащим
##270000003500
##ИРЭ
передаче
дефектного
письменном
0002
##ациям
##182
Муниципальные
##ЖДУН
фактуры
причинам
восстанов
Формы
нарушений
##ильный
ПОДПИС
Презид
увелич
Технические
Самарская
##1600
признак
Объекта
каких
##ятств
единич
утвержденными
Рассмотр
оценке
возвращает
Частью
##690
##ретарь
Мослифт
##1722000
устранены
##ЛАД
используемого
010702
010813
развитию
##5800
экономике
Почта
осуществляющим
СПЕЦИ
непол
##КОГО
разъяснение
отвечает
Владивосток
кварта
последующим
Специальной
миллион
физических
безопасность
транспор
присоедин
##тизации
##РАЗОВАТЕЛЬНАЯ
##ova
40102810345370000013
апте
КРАЕВО
любое
штук
№03732
№03731
блокирования
нормами
4010281004537000003
03214643000000017200
Инструкции
инженерного
ГОРОДСКОЙ
внутри
Ставропольскому
стандарт
стандартизации
Алтайскому
СУБЪЕКТОВ
Иркутской
ОБЩЕОБРАЗОВАТЕЛЬНАЯ
##0000062200
##ющихся
ОБРАЗЦЫ
Омской
##релых
ГПЗ
МИНИСТЕРСТВА
МЕЖДУН
ОДi
Уплата
сельсов
##ГКБ
депоз
двенадцати
сборов
Данный
взыскание
##ina
Областное
##ендер
санаторий
Основные
покрытия
ения
ение
##НОСТЯМИ
удостоверя
Балаковская
РОСТОВ
Страница
предоставленная
пропорционально
##095000003
##02501
Комплект
Комплекс
выбрать
Ярославль
Ярославской
Астрахань
Официальном
текущему
##наком
20726
ВОЗМОЖ
Теплоэнерго
польз
инвестиционных
Геннад
НЦМ
НОВОС
уборке
Производ
инфраструкт
Викторов
##видации
##402000033220106
Буря
мотив
ознаком
##ачей
оснащения
Единая
кадастр
проверки
018702501
бездействие
##18500000822005
КОСГУ
Местонахождение
нежилых
стационар
##АРОДНЫЙ
УЧАСТНИКОВ
ресурсами
Введите
Дмитр
Таблица
остановочных
##ангель
рабочего
конструкций
подписывают
КРАСНОЯРСК
органом
Чебоксары
Нерю
ликвидации
препятств
здоровья
РЕСУРСАМИ
Архангель
Андре
620333590
yandex
Валер
Елецкого
ОПРЕД
Сальдо
павильонов
рентг
##ШЛЕННЫХ
обучающихся
подростков
прерывается
престарелых
##льтернатив
017501500
012908002
010173001
##080000002200
ПРОМЫШЛЕННЫХ
03224643070000002101
Рассмотрение
010702101
010813050
КРАЕВОЕ
40102810045370000030
МЕЖДУНАРОДНЫЙ
ВОЗМОЖНОСТЯМИ
100000
351
349
644
640
745
Аб
АЛ
АБ
Ана
АТС
Бог
Вк
Газ
Гай
ГРЭС
Дв
КВ
Куб
Коч
КОЛ
МЦ
Монтаж
Нат
НСО
Пяти
Ред
Рев
СТР
Сорок
Тре
Тем
Тали
Три
Уч
Указ
Худ
ЦА
ЧИ
ЧЕЛЯ
арест
альтернатив
вели
гара
её
жительства
иными
лок
лес
ми
меб
модерн
ной
новые
ой
огражд
пара
пам
парт
ситу
уз
шин
ые
энерго
##иального
##илова
##сульт
##цев
##ыск
##737
##208
##850
##412
##4200
##601001
##КЦ
##ПЦ
##5000
##322
##тения
##тех
##рован
##zakaz
##ВОД
##ЕЖ
##ДЕМ
##дер
##жей
##бГМУ
##ОГ
##ОЗ
##ЛЕНИЯ
##БИН
##kh
##ГОР
##ЯЯ
##ётом
##pe
##енская
##онополь
##анной
##етель
##007
##аторе
##оту
напр
##имов
##имулирования
##имонополь
предп
председ
##ляют
проб
##ованы
сораз
отход
##иев
обязуются
##0000102
предоставленных
степ
стимулирования
##010000
##0151
##ники
##никами
##020
среды
изыск
контракте
##удеб
выстав
вышед
##вещения
освещения
денежными
##228
указанная
##ительные
##опления
действитель
договорной
поставкой
учётом
##ностях
час
была
##естителя
расцен
##СТИ
настоящи
##очности
##104
##103
2017
различ
456
организацию
031
206
058
подписавшего
соответствующие
##376
0152
013601
125
послужив
113
ОБСЛ
подрядчиками
##0308
##0355
##чило
##ОРТ
Отказ
устанавлива
правовыми
Неисправ
штрафных
##ЕДИ
##ЕДЕНИЯ
##ЕДИН
135
140
##065
##0601001
##12603
##120000102
Проектом
перечисленные
применением
##250
##0734
Предложение
Гарантийных
##711001
исполнителями
дека
##1101001
##112201
собой
##ОВОЙ
Заполн
единица
##лавление
03224643220000003200
191
235
080
##АОУ
##7500
Положение
##20000122
##20000112201
##22000001
недостовер
##739
##9866
##3300
##33035
информационных
222710
##0401001
##652
##658
предоставляемые
оформить
писем
##483
##реплены
##2800
рассматр
используется
прикрепленного
почт
российские
Глава
Главы
ИСПОЛНИ
##181
Муниципального
##ЖДЕНИЯ
ПРЕДО
прилагаются
заключенному
выполняемой
несвоевремен
##ологических
##09001
0323264364
ЗАПРОСУ
№036
ПОДГО
возмещением
##16220000
40102810945370000023
утверждения
Качество
##лежива
местного
##8700
САРА
положениям
301018102
труда
##3261
Утверждена
222635
222633005
Орловской
электрос
включение
считаются
Минфин
Юридические
##oszakaz
Центральным
##ОКБ
прослежива
##5920000112201
##45370000051
колледж
##5201
удерживается
главы
40102810345370000051
хозяйство
Услуга
торговли
##3000001
третьими
автомобильного
Белгородской
Свердловская
программного
40102810345370000076
минут
споры
статей
лицензировании
40102810845370000
комплектующих
экспертизу
скор
40102810245370000074
УСЛУГ
##ИЗА
##45370000026
4010281004537000006
субподрядчикам
Аукциона
Обществом
несколько
разработки
разработке
УТВЕРЖДЕНА
143533
##оответствие
0180734
01612603
016711001
Алтайского
##кинского
СРЕДНЯЯ
принимается
областной
Указанные
устройства
устройству
противоре
Крымэнерго
существенным
учеб
анализатора
Курская
Изменения
40102810445370000079
Севастопол
затраты
автоматиз
внутренних
охран
##50220000
РАСЧЕТ
регулируется
МАНСИЙСКОГО
##ОВСКИЕ
покрывать
##арев
##ИВАНИЯ
ЗАПОЛНЕНИЯ
БАНКОВСКИЕ
привлечь
ГАСУСО
парк
качественных
качественные
Уральский
Уральское
##УЖИВАНИЯ
объём
специализированной
СВЕДЕНИЯ
Приказ
профессиональное
неисправности
Смоленской
рынка
ЛЕНИНГРАД
ТАТАР
велич
расторгнут
Атомстрой
научное
Отсутствие
РАБОТ
земель
##ХОЖДЕНИЯ
исполняющего
40102810145370000026
##ассаж
Эксп
рассматривает
охране
Оглавление
антимонополь
разумный
Ордена
Верхняя
утратившими
отозвана
Медицинский
ПРОФЕССИОНАЛЬНОЕ
ПСПбГМУ
офисной
реагентов
1663671
Разработка
Уполномоченный
Василь
ЮГРЫ
вместо
017102101
субсидии
контрагентом
Пирогова
xls
БАРНАУ
КЦСОН
Народной
ОРГАНИЗА
трансформ
##ечебно
примени
заинтересован
ЗАКЛЮЧЕНИЯ
ОБЪЕДИН
признаками
Нерюнг
рентгенов
Наталь
ЧЕЛЯБИН
величины
соразмер
степени
013601205
ОБСЛУЖИВАНИЯ
##120000102200
Заполняется
##20000122200
##33035240
рассматриваться
40102810045370000067
018073401
016126031
Севастополю
2х
2001
2000
275
323
502
526
692
771
B2
B5
BE
VI
mr
pd
АКТ
Ачин
Ба
Бор
Благоуст
Вс
ДОН
ЖК
Иные
ИУЗ
Квали
Лу
ЛИ
Мак
Много
Мира
МБОУ
МИРЭ
МЕДИ
НК
Ост
ОАО
ОПИС
Пон
Пск
Плат
Пыш
Пансионат
Пятнадцать
РМ
РТС
СШ
Сем
СТРА
ТЗ
Твер
УЗ
Ура
УРА
Указание
Хак
Чер
Чай
Ям
бол
вл
да
дере
дано
довер
демпинг
иг
кос
ключ
ли
луча
мас
мкр
нот
ния
пра
погруз
респ
се
сбора
ту
тар
того
улу
урег
хх
шосс
шестнадцать
эл
ян
№018
##нск
##нений
##аим
##оот
##мвая
##748
##263
##204
##10001
##463
##498
##кс
##КОР
##ИЛИ
##йбы
##305
##905
##тоб
##тием
##тенного
##лы
##лит
##чш
##чер
##ia
##ТЕМ
##ды
##ОЙ
##ЛЕД
##ЛАВ
##юще
##ющее
##ФИКА
##шин
##эф
##ГБ
##ЯТ
##ЯДА
##ЗК
##FT
##ol
##ЦЕД
##ШКОР
##№1
##енское
##раб
##рами
##спорт
##аковые
##аны
##етон
общ
обороны
обнов
обеспе
##льной
##олю
##олковник
##ометр
заканчиваться
##ечет
нас
##ске
##имова
##одно
исполнены
предельной
##ерку
##ероссий
##ованных
закупа
сох
отлич
##ентар
##арная
##арина
##атьи
##ерап
участок
##012
##0100
##02001
##ленная
Заказчиками
усмотр
подробные
излож
извест
предусмотренными
##прия
##2206
##ительными
установленному
действие
действующее
действительным
начальник
006
##деления
##дежды
поставляются
учтенного
банку
##ектор
##ектора
Контрактов
товарный
##ОВСКИЙ
Прибор
бытовой
##001171
##АНГ
##АНСК
государственную
осуществляются
##очного
Степ
##455
##4520000
органов
Подраз
Подольск
##0008
##00066
##0006100
453261
035
205
2091
055
0539
возд
##ЕРНОЕ
своевремен
0125
01200
0117
019205
ОБЪЕКТ
основание
##031
##036
##0301001
##030001
датой
оператора
конд
поступила
аукциону
Необход
окон
##СКИЕ
проектный
ИНСТР
вклада
##125
##129
##анова
##ационно
одинаковые
выданные
ПОКУП
способе
##08377
##ковского
представлении
представляемых
Предостав
Предприя
ЗАКУПОК
##ификаций
ПРОИЗ
ПРОЦЕД
производителями
1811
##115
##0000003700
##0000007400
Зареч
0322464329
03224643980000001
##теп
##СКОМУ
рабочей
230
231
##518
##516
направленному
направляемые
215
##мур
##9168
##75220000
приложен
##2000002
##200001722000
##22000020
##2100
##6130000
недостаточности
данная
безотзывная
процедуру
##ированию
Опреде
##елок
##0054
##040
##0422001
##655
##нова
##ЦИОНЕРНОЕ
Новок
виды
Санаторий
##ившим
предприятием
Петербурге
Петербургское
платежное
письма
предложено
ФГАУ
##7700
##282000001
прикреплен
##2401001
##3520000
##220021
##2700
##1800
Муниципальному
##468
двиг
фактур
подполковник
Смольного
понятия
регион
несут
##090
##шева
запреты
имеющих
взим
взаим
рассмотрению
оказываемой
##3900
##3920000012201
Технического
ФИЛИ
ОБЩЕСТВ
03222643030000001800
единого
единый
описании
обязательное
выбран
##86Х
согласования
утвержден
утвержденного
##ТОСТАН
детской
детям
##740
ЧАСТИ
Предусмотрено
заданию
особенностях
650
Севера
троту
##22000143
территорий
Городской
устранении
изготовлению
выявления
22263300
электроснабжения
экономическим
##ающее
##ern
возникающие
реестровый
заполнения
##КОМ
автомобиля
##5900
##52000000
##ЛИН
Привокз
Саранск
подавш
хозяйственных
хозяйственного
транспорта
##улиру
Перв
##здоров
##7010003
Томск
Томской
непредоставление
непредставления
УЧАСТНИКАМ
Саратовская
##региональ
лицензий
##ульвар
СОГЛАСОВАНА
Корс
заказу
экспертиза
блоков
40102810245370000044
нормальной
наступлении
оплатой
301018108
Сочиавт
03214643000000017300
Инструкция
ПОДРЯДА
соисполнителям
произошли
Конкурса
вносимые
Спецификации
##горск
0160151
полученные
группе
предъявляемым
ОБЯЗАТЕЛЬСТВА
задолж
поручает
НИИП
здании
##кВА
677000
677027
Кировской
лоту
существенного
##670000007400
нормативных
повреждения
типовых
запасные
##ВРОПОЛЬ
##остоянно
автоматической
Советского
коллективный
взысканию
рыноч
КОММЕР
требу
возникновении
Основная
Продавцу
Метод
Николаевича
Балаково
Вернад
##53300066
##АНИЮ
элементы
отозвать
АКЦИОНЕРНОЕ
благоустро
отмене
16937
дополнения
40102810845370000050
40102810845370000053
Субподрядчика
выдавать
61651
Детская
ОМСК
линии
линия
коммунального
образовательного
Астраханской
вступает
обеспечиваемых
Принципалом
Сибирское
марки
трамвая
приглашает
упаковке
Приморский
КУРГАН
ЛЕНИНА
##7084
##ицкий
выраж
перечня
расторгнуть
40502810
власти
функции
прочие
##0006200
методом
Забайкальский
модификаций
невыполн
своего
автотранспорт
некачественного
лег
приёмки
спецификации
##483000661
контактный
Мурманск
ПУТЕМ
агрег
мажорных
казённое
Результаты
количественных
40102810045370000009
дизельного
монитор
несостоявшейся
логистики
Зубарев
СТАВРОПОЛЬ
агентства
##онавиг
полномочия
перчатки
Грузополучателя
045700
Гагарина
ИВАН
Оконч
СЛУЖ
фирмен
энд
##истиче
##ult
кабинет
выплаченный
конструктивные
210544
БАШКОР
Десять
КЛИНИЧЕСКАЯ
Межрегиональ
давления
пищевых
Реконструкция
ПОДПИСЬ
Президента
квартале
депозита
Комплекта
НОВОСИБИР
инфраструктуры
ознакомления
Анаст
Гайд
КОЛЛЕД
арестом
мебели
##ГОРОД
015209001
декабря
ИСПОЛНИТЕЛЯ
1435339168
противореча
ТАТАРСТАН
pdf
Благоустройство
ДОНУ
ЖКХ
Квалифик
МИРЭА
МЕДИЦИ
Псков
Пышма
СТРАХ
дерев
нотари
улучш
шоссе
усмотрению
##0011712244
012007084
011708377
019205400
ИНСТРУК
ПРОИЗВОД
ПРОЦЕДУ
03224643290000003700
03224643980000001601
Определение
##28200000122005
ФИЛИАЛ
ОБЩЕСТВО
Привокзальная
Сочиавтотранс
016015102
КОММЕРЧЕСКАЯ
Вернадского
##48300066122001
БАШКОРТОСТАН
КОЛЛЕДЖ
улучшенными
025
0000000
1001
10013
277
322
366
30301
491
499
5000
547
673
624
617
701
775
773
719
8452
916
SW
Ty
goszakaz
zi
АУ
Берез
БУЗ
Вав
Вож
ВИР
Валю
Ведом
ВЛАД
ГБ
Гер
ГСМ
Дем
Действие
ЕД
Елена
Жил
ЗК
Знак
Коз
КИР
Лом
Ном
Наз
Нене
НИКИ
ОР
ОЛР
Пан
Печ
Пар
ПЕР
План
Постоянно
Руд
Рад
СЗ
Тол
ТОР
Текст
УК
Фонд
ХОЗ
Школа
ат
бор
ваку
гов
гор
гид
гиб
груз
жив
зон
кв
кг
кри
мо
мик
ние
ноль
ных
новых
офер
оздоров
покуп
пассаж
сл
све
сектора
тара
трав
тал
тур
тверд
уча
чрез
ых
эа
эв
№7
№9
№63
№223
##ищ
##илей
##нера
##мак
##указан
##цы
##хгор
##20003
##1000
##40000
##401
##426
##6Ц
##674
##кологический
##писка
##еот
##еред
##ПОУ
##ИФ
##ИМЕН
##3Q
##337
##301001
##951
##920000
##лом
##ьбе
##ял
##яче
##яжения
##ТК
##РОС
##ДОВ
##ду
##жная
##фет
##фаль
##фид
##зв
##БЫ
##ФС
##шер
##se
##ec
##ep
##ЯЙСТВА
##IFT
##ЗУ
##ЭП
##lin
##tia
##yaku
##енского
##рас
##оворонеж
##спирт
##онная
оборуд
##олет
##орож
##орского
##аза
закры
##чай
##имер
исполненными
##ерин
прям
##осеть
неодно
##лев
закупочных
##ательских
отмен
отделения
##ейская
обязательствами
##арди
договорам
раст
##000011
##000047
Общий
##016
##альными
##02000
##0261
##инов
подается
подвед
##ющую
работах
##оборот
случай
опас
приборов
заявившим
##неж
##прод
##уков
денежном
прош
##ительный
должности
Наука
установленной
##ирский
##ирург
начальных
004
##десь
##декс
заказчике
формах
##ловая
##ивной
1095
товаром
##евт
##евич
одобр
Прием
##00128
##001101
система
##жающей
осуществля
осуществляемых
##106
##109
##1065
Стр
##4501
аварий
законченного
закончило
##вычай
органе
разноч
обладание
предложении
##0008700
процес
450000
муниципальной
организатор
организаторе
организационно
0318
0358
##идетель
203
2039
0509
своб
свидетель
0133
016311
127
объектах
112
114
пунктов
явля
являющего
##030
##03000
конвер
##ился
##илакт
##ресс
оканчиваться
##дина
Товаре
##оскрес
##ностиче
##проведение
148
14174
информацией
##ическую
всеми
##124
##ТАЙ
перечислением
применены
##адки
выданного
##2501
имму
##0801001
##07002
##000130
##0500
##0510
2215
представитель
обязана
обязанностей
##639
##АСТОПОЛЬ
инструкции
##алева
252
Участнику
##ЛЬСКОЕ
##ублики
возместить
односторонний
##илирован
##алист
187
##0000004500
субъектами
акту
1700
03224643270000003500
0322464352000000
195
23001
##риф
##513000
##26430000000
081650000062201
##756
##7556
краевой
##22000069
##ЕТСЯ
своими
319
ФОРМЫ
##618
эксплуатацион
данным
процедура
##ированная
22286
##041
##04003
##650
##650001
##650000006
##новэнерго
оформлением
оформлена
Нововоронеж
НАИМЕН
##СТВЕННОЕ
образцов
ОБЕСПЕЧЕНИЯ
##ЛОТ
##ладывается
##1020244
##1021065
заместителя
окружающей
##варя
уклонение
##2402
передает
##2620244
подписанием
другу
другими
фактическое
##СТАВЛЕНИЯ
причиненный
компет
компенс
несоверш
##ологическая
СОДЕРЖАНИЮ
№135
размещению
0323264365
##6400
№0318
Конд
##410000004500
##бинат
поставляемых
возмещает
03222643400000007200
03222643080000002200
Коммун
Комбинат
управляющего
##860003
Осн
40102810945370000039
40102810945370000060
уведомить
уведомлений
уменьшенной
понесенные
местному
##10500000000
ЦЕНТРА
6582
##697
##6900
30101810500000000
тренаж
##999
##172000003
##22000109
МАШ
служба
предъявить
Министерством
уполномоченными
783
7838
№081650000062201
##30033
используются
сайт
сайта
Рабоча
считать
возникли
ЗАКАЗЧИКА
##еннолет
запретах
417556
Нижновэнерго
##45370000056
характеристика
главный
Специалист
сопутств
Западном
деятель
Филиала
СРО
СРОК
приведено
третьей
файлами
технологический
автомобильный
##яжением
Распор
40102810345370000037
КОНКУРСНОЙ
Такое
функциональных
строительных
строительством
Собран
сметного
онтра
заверш
40102810745370000
скреплены
Нижегород
40102810045370000056
банковским
назначена
инженерно
Ответственный
Ответственность
транспортных
4678
##матологии
залога
залоге
вносимых
график
018860003
частичного
получено
профилакт
4010281064537000006
##02000003
заседания
Ростовская
потребительских
Принял
противопож
ГПБ
сообщить
замечаний
расположен
расположенных
технико
Организациям
Павлов
Чувашская
группиров
ОЦЕНКА
прекращает
Татспирт
предоставившему
Советский
РБ№1
равной
Оренбургская
Александра
Магнитогорска
списании
целом
20806
20825
поселение
ОСБ
страхование
картой
4060281064
привлечением
##остроительный
Электросеть
СЕВАСТОПОЛЬ
Тагил
благоустрой
Пятьдесят
обращения
коммунальное
образовательных
Организатором
Официальный
паспор
находящихся
обеспечивающую
##автодор
инвестиционной
80600
Генподрядчик
Жилищник
перечнем
региональные
генетический
добав
функцион
отгрузке
РАБОТЫ
ВОЛГОГРАД
Забайкальскому
0440308
50500
Территор
комитета
автотранспорта
4060281021065
высокого
##оружения
РАЙОНА
Большой
Большая
Аэронавиг
Олега
РАНХи
асфаль
уточ
##20101
Оператор
материалами
единоличного
декларирование
508697
Дальнев
Девять
риски
##районная
объявленной
зачисления
контролем
аккредитации
многофункционального
диагностиче
inf
Блокирование
ПРАВО
Служба
камер
межрайонная
Образец
##обильных
выгодности
05353Q
инновации
30101810900000000
Сергея
##ректировка
Заведующий
010507002
997650001
Описанием
проез
##мотреть
увеличение
СПЕЦИФИКА
неполадки
сельсовет
пользования
Бурятия
АЛТАЙ
Трехгор
ЧИТА
председателя
изыскательских
вышедшего
ПОДГОТОВ
222635001
электросети
ЛЕНИНГРАДСКОЕ
БАРНАУЛ
ОРГАНИЗАЦИИ
ОБЪЕДИНЕНИЕ
Натальи
ЧЕЛЯБИНСК
ОПИСАНИЕ
Платёж
Урала
УРАЛЬСКОЕ
Хакасия
болез
влечет
игр
лучае
республики
туал
тариф
января
##ющееся
сохран
Приборостроительный
012520101
ПОКУПАТЕЛЬ
Предприятия
задолженности
рыночных
Окончание
эндоскоп
Анастасия
ИНСТРУКЦИЯ
ПРОИЗВОДСТВЕННОЕ
100101001
1001304003
30301607
SWIFT
Type
goszakazyaku
zip
АУВД
Валюта
ЕДИНИ
НИКИМТ
ОЛРЦ
ХОЗЯЙСТВА
вакуум
травматологии
чрезвычай
эваку
##line
отмены
##0000112200
016311121
являющегося
03224643520000005201
##650000006200
несовершеннолет
Коммунистиче
658261
##1720000032201
Рабочая
Татспиртпром
044030861
40602810210650000003
Аэронавигация
РАНХиГС
асфальтоб
СПЕЦИФИКАЦИЯ
Трехгорный
goszakazyakutia
несовершеннолетних
00000
022
10000
101
333
461
416
507
527
574
608
607
651
647
700
761
778
8B
863
813
800000
907
992
914
Co
ok
rar
sal
tex
АТ
АСТ
АКА
Бенз
ВН
Вор
Волж
ВЯТ
Воскрес
Днем
Двести
ДЕП
ЕЭ
Иго
Имя
КП
Кр
КЛ
Кот
Кост
Кос
Кин
КОР
КАВ
ЛО
Лок
Лист
Луки
ЛИП
Лечебно
Мас
Матери
Мух
МОУ
МГУ
НЭ
Отра
ОКУ
Орел
Прок
ПОС
Панч
РЦ
Рогов
РЯЗ
Ректор
Св
Ск
Свет
Сокол
Саров
Торг
Татья
Теку
Ур
УМ
Умень
УКС
Хара
ЦК
ЦЗ
Члены
Четыре
Шм
ЮЭС
ЯН
ариф
бесп
бульвар
вед
гол
дос
дем
дез
ет
еж
есть
жал
здесь
ир
ку
кат
клад
круп
лест
мая
мере
мощ
механ
нов
ного
нительная
пасс
патент
свыш
сал
сда
совер
спец
та
таблиц
тендер
терап
улич
фот
фонда
хл
хот
характер
хранения
цель
чер
шифров
эти
№02
№33
##иС
##ином
##ивает
##нам
##ницы
##ают
##аэф
##сорт
##виж
##ув
##ура
##уля
##ужд
##ыс
##ыр
##70000
##751
##70100100
##243001
##4001
##406
##626
##687
##кет
##крат
##плект
##еф
##ега
##ag
##АС
##ИТЕЛЬ
##ИМО
##536
##522001
##907
##963
##920
##тест
##якова
##роз
##ТНОЙ
##ТЕТ
##ЕФ
##ДУК
##гента
##горг
##гиального
##бной
##бере
##банк
##блок
##фин
##СМО
##зит
##ЫЕ
##ЬКОГО
##шина
##шаются
##эк
##eg
##ъез
##ГА
##ГЦ
##ЧА
##ЭФА
##ёх
##МОР
##МАНИЕ
##ri
##um
##hern
##SD
##ON
##J41
##оволь
##реж
##онами
##оносова
##ствии
##етия
##ктики
##004300
##отных
##авод
##авших
##азы
##останов
най
##сян
##импр
##одную
##ога
предост
##нта
##итов
##ованный
##ованные
##огового
непроведение
##лез
##лева
##легиального
##емо
##емся
##емому
##емости
отзыв
отчёт
отопления
##луш
##ейнер
##арский
предоставлены
##ерации
участке
участни
Обла
ств
сторона
##0143
##010000001
##чета
##0241
##щев
##изион
центра
ценовые
подано
подлин
##ющая
##лажд
предусмотренное
забол
##лектрок
##оба
##обы
оплачи
##уберку
реакт
решений
заявление
заявкой
такую
##омерные
##нец
449
электронно
электронному
электронную
выдачи
##проф
##22028
##ительное
Набере
##опорт
##ополя
##щегося
##чества
составляют
формирует
формула
2022года
проведенного
внесудеб
банках
банкрот
##ловский
##ующим
##ующими
1075
10кВ
##ранзит
##ево
одному
полит
полковник
##ИКЕ
годности
##0012
##0018
##0012620244
##озов
выплат
выплате
##АНЬ
осуществлять
осуществляться
осуществлена
##очно
##108
Стер
##4580
законную
Подроб
разраб
##4350000
процесс
45600
0325
0307
0348
##начительно
определяет
204
20356
051
0522
0507
0559
##4480
сводную
законодательству
самой
0124
0178
0169
0168
011920000012201
1219
перево
##0000000046
обязательствах
ЗАТО
1163
пунктах
168
операцион
ДОМ
3091
поступление
правомерные
##230001
##СКА
определить
401850
##370000004300
##ибор
1325
копию
ИНСТИ
142
##1201001
##фикс
##аново
##ановского
##нями
допускать
1555
имуще
конкурсов
вины
##0701001
03221643
искам
##000108
##6345
##63220002
##630000006
##632000003
378
##алев
исключительно
отдых
приемочной
содержания
отдельный
отдельному
РОСМОР
##айская
248
испо
ПРОДУК
##илиз
№440
обслуживанием
##1102
##0000004600
##0000004200
##0000003900
##0000005900
площадок
##ОЛОГ
177400
03224643650000006200
196
1994
194480
Банковский
232
2309
2315
##ляющий
##515
##510002
направлении
219
##борств
авторского
##750
##758
##754
##7502
##2000051
##2000084
##20000022200
##20000302
краткое
##22000091
##22000048
##22000028
##22000039
##22000054
##22000056
##730000
313500
314580
объемов
##охимпр
##21000
##210001
##торов
##6198
##610000005900
##331
##333
##кутское
222637
##АЛЬНЫЙ
##046
##040000001
##04182
##652000003
предоставляемых
оформленные
специальной
НАХОЖДЕНИЯ
заключений
##488
##952501
Кодек
помимо
##20028
ОБЕСПЕЧЕНИЮ
расходные
##7749
##7797
262
освобождаются
надлежаще
уклонился
российский
Директора
потребности
##2474
получатель
получивш
##274
##2701000
материальной
##190100100
Едином
ИСПОЛНИТЕЛЬ
##269
##2600
подлежащих
№0137
№011920000012201
телегра
превышающей
итоговый
прилагаемо
валюта
Товаром
размещение
размещении
размещением
032326438
0323264319
03232643337
АУКЦИОННАЯ
ОГБУЗ
Минималь
№0307
№0348
№0358
##ильский
##ясово
Технический
##410000
##4100045
каждому
##аменский
##ивающего
03222643450000007300
выборе
управляющий
##4901
##орец
##орег
##360000004200
детали
периоды
постановлении
оценка
##0003100
возвращено
сведении
6501
650101001
##476
##4705
##4722001
Мосгорг
Ценовое
##ИНИТИ
##ашко
капитальный
##342
##993
##рострой
Установка
Калинина
МАДОУ
##320000003900
социальной
№275
устранит
устранению
014220000132202
предъявления
предъявляется
347797
7813
7842
781202
совокуп
приоритетную
проводит
телефонов
монтажные
Северной
##артир
выявленные
##0000000800
##220007
электроп
непатент
эксперт
экспертов
##ифиц
431
Нижне
согласована
ГОРЬКОГО
коллегиального
6678
Якутскэнерго
Электрохимпр
##ФОМС
67095
676198
подавший
110450
Авто
Автодор
официально
хозяйственной
Настоящее
СОСТАВУ
технологий
##88102
##880000000800
##АРТАМЕН
Расчеты
##420000004600
факса
факсими
10278
Белок
40102810345370000033
КАЛ
Продукция
rosenergo
количеству
любом
любого
заказе
##000008220000
блоки
скан
начинается
40102810245370000065
Ирина
этот
##ционных
540501001
Барс
водопровод
водоснабжения
транспортной
транспортные
Владимирская
##000001220000
Хабаровского
018952501
аппарата
Алтайский
входящих
любые
НИИЭФА
вышеуказан
УСТАНОВЛЕНО
гражданином
изготовителям
145238
улицы
этажа
закупочная
закупочную
потребительским
Липецкая
Маркса
незначительно
устройство
##treg
завода
подразделения
Курска
ОДд
Приволжского
Севастополя
арх
##6710001
##тивной
Конкурсная
подписывается
КОММУ
Волгоградская
89000
меньший
международ
Законе
персона
дорожной
цифрами
##010004000
##635001001
накладных
Продавца
Мурманской
Метрострой
жилищно
##3230003
##ТУТ
организациям
699866
Сервис
сетевая
последствий
Иваново
Горды
##12244
##делец
пропорциональном
Восемь
Тагильский
##оружение
##лаченной
013510002
выбрана
Субподрядчиком
выдавшим
зарегистрированным
СВЕР
вступления
текущего
оборонном
оборонному
Прикреп
СОЦИАЛЬНОЙ
Принципала
ХАБАРОВСКОГО
пользу
приглашении
упаковка
рассчитывается
##ографических
рынке
Алексея
Алексеевна
биологического
молочная
состояния
обеими
выража
инфек
сделки
сертификатов
таможенных
Термины
канц
канализ
секретарь
##ation
невыполнение
выступает
407028102
Анатоль
Анатольская
Ковров
доработанного
доработанный
##7450000112200
##ВАЛИ
приёмке
преимущество
##00000000861
административных
предусматрива
Мурманского
arbitration
34678
Аэропорт
ВЫП
ВЫСШ
ассорт
##8022000051
##ИМИР
избеж
0137351
№014220000132202
единоборств
спортивных
Коломенское
энергетическая
ОСНОВНЫХ
ОСНОВНЫЕ
обжалованы
надзора
безвозмездного
Попов
Попова
химическое
##электро
16678
свойствам
продолжительной
созданию
Головным
Долинский
ТЕРМИ
ветерин
светиль
уровня
##птографических
обременением
обратиться
пересч
поступившие
##ензиат
компьютер
Конститу
Чапаевск
Квартиры
Международный
ортопедии
Баймак
ВНИМАНИЕ
ТРИНИТИ
Турнера
Харченко
гардер
публикации
##5258
##9120000062200
##ертное
Столицы
05914001
##1600кВА
единичным
аптека
Андрея
ОПРЕДЕЛЕНИЯ
Включается
Дворец
Кубань
Темясово
ЦАК
модернизации
ограждения
памяти
партии
энергоблок
отходов
расценкам
устанавливаемым
ПРЕДОСТАВЛЕНИЯ
САРАТОВ
301018102000000008
прослеживаемости
40102810845370000014
охранной
Экспертное
трансформаторов
применим
соразмерно
##12000010220098
2х1600кВА
502243001
mrsk
Остальные
Семашко
практики
урегулир
##спортные
##ероссийский
отличаться
Степанов
##4550100100
##45200000422001
ОБЪЕКТА
кондицион
Необходимо
181165
##200000222005
##613000063220002
подавшему
30101810800000000861
##533000667220000
благоустроенного
16937223
СЛУЖБЫ
210544100045
Межрегиональное
НОВОСИБИРСКОЙ
Квалификация
МЕДИЦИНСКИЙ
ПРОЦЕДУРЫ
Вавилова
ВЛАДИМИР
Козлов
КИРОВ
Ломоносова
Название
ТОРГ
аттест
борьбе
животных
криптографических
свеж
##еотрест
##оборотная
прошиты
разночтения
процессе
свобод
013304182
319082
НАИМЕНОВАНИЕ
компетент
тренажеров
783801001
деятельность
Распоряжением
40102810645370000062
40602810640000000046
info
болезнями
ЕДИНИЦЫ
асфальтобетон
52780
813660
90795
oktreg
text
АКАДЕМ
ДЕПАРТАМЕН
ЕЭТП
Игорев
ЛИПЕЦ
НЭСК
Отрад
ОКУД
Панчук
Роговин
РЯЗАНЬ
Текущий
УМВД
Уменьшение
ЦЗЛ
ЯНАО
демонтаж
дезин
иркутское
пассивной
патентных
свыше
салфет
хотя
целью
шифровальных
##СМОТР
##ъезда
##J41980
отчётные
##010000001700
заболев
##уберкулез
##профильный
внесудебном
##4350000022200
032526430000000
017888102
121979
перевооружение
116359
132591
ИНСТИТУТ
##63200000322005
отдыха
ПРОДУКЦИИ
##040000001900
##65200000322001
03232643337010004000
Мосгоргеотрест
784201001
Электрохимприбор
670955
rosenergoatom
##745000011220035
ВЫСШЕГО
ассортим
013735150
Баймакский
05914001018
oktregion
027
0278
243
291
2СО
302
325
311
321
422
421
433
409
474
487
413
469
512
519
645
612
698
661
626
797
740
804
9F
900
939
986
920
B0
B8
BD
IX
US
WD
con
etp
ms
utp
zakaz
АП
АР
АЗ
АТОМ
Беч
БЛА
БАЛ
БТИ
ВС
Вет
Вне
Ворон
Веду
Восточное
Вяче
Гал
Гри
Гур
Гуры
Ди
До
ДС
ДЮ
Дуд
ДМИ
ДГК
ЕП
Ер
Еф
ЖИЛИ
ИХ
Идентифик
Йош
Кан
Коп
Кил
Лап
ЛАНГ
Ми
МР
Мен
Мон
Мол
Мом
Максималь
Мих
МЕР
Май
МАР
МАОУ
НОМ
Ола
ОКА
ООКБ
Па
Поряд
Ры
РУ
РГ
Рож
РОД
РЭС
РТУ
Са
Сч
СН
Сд
Сор
Справ
СЕЛЬ
Соответствие
Тар
Тере
ТЕЛ
ТФОМС
Уведом
Фр
ФКП
ХМ
Хост
ЦБ
ЦПК
ЦГБ
Ши
Шух
Школь
Электрок
Яны
ал
аф
бенз
блан
благо
вст
вом
вент
гл
гин
генера
градостроитель
дств
дог
двер
даче
ес
ем
жел
зим
зательств
ия
ином
ки
кил
люд
миним
нум
оно
ого
оответств
оче
одежды
пан
пот
пац
повы
пласт
палли
ракта
сд
сот
сформ
слож
сполн
сух
тв
тот
тай
течении
уль
уличного
цеп
чения
чет
№8
№23
№86
##ися
##алей
##ага
##су
##сай
##слав
##оит
##ооб
##мов
##мом
##уре
##укт
##уле
##уть
##учения
##цово
##722
##705
##2D
##243
##80000
##821
##112
##135
##139
##645
##695
##628
##60100100
##коп
##пыва
##ег
##У3
##УСТР
##ИЮ
##ИТЕЛ
##ИНА
##507
##3D
##344
##3101
##910
##904
##902000003
##той
##тур
##тинский
##лим
##лий
##лительно
##яжен
##ятых
##рора
##роп
##рских
##щается
##ЕКС
##РЕН
##ЖРА
##НУ
##НД
##дара
##дейская
##жим
##жной
##жки
##гина
##гвар
##ОЯ
##ОГУ
##ОИТЕЛЬ
##змер
##БР
##БНУ
##ФЛОТ
##шая
##шиб
##ko
##sult
##es
##ГП
##ГОВ
##IN
##ЭК
##ЭУ
##МР
##ЩНО
##lu
##TR
##енци
##енка
##стов
##ститут
##статьи
##раш
##овского
##овская
##овому
##оведение
##рей
##акц
##нося
##ствующих
обоз
обмена
##льного
##008
##00712
##олон
##аты
нар
##тразв
##олнеч
##оставимых
##ско
##имет
##имки
##ока
##оконов
##ельная
##ельхоз
исполне
исполнен
исполненный
##ерст
##ерных
##ерна
пром
##ованным
##особ
неуп
неуд
##киной
сооружения
##лины
##оразмер
##еднев
##едлительно
отбор
отступ
отчества
##иеся
##исутств
пояс
##лун
##ентом
##амедлительно
##арова
##000016220000
##частей
##люмин
Общих
стен
стоя
станов
##015
##0107
##0166
##альную
##021
##ину
##инском
##инова
##ленными
##излож
которую
##чебной
подд
подведом
подаются
##усов
работу
работников
зафикс
независимые
##обьев
##обаза
##убское
приостанов
принося
реф
услуга
##ЕНЕЦ
заявления
заявлению
Россельхоз
##елярских
##нецк
электронными
установке
установило
##ственская
Пролет
Проведение
Присутств
20206
##укова
##2225
##ложений
Направ
##ирующего
действов
0095
##дественская
##менков
заключаемым
провести
формирование
учред
##ловых
107
1043
##евны
##ИКЛИН
Прилагается
действиях
действиями
##0010
##0014
##0011020244
выпуск
##АНО
##ОНА
##елесо
##очный
##очным
20176
Старод
##45300
Способами
законами
Подробные
разъяс
предложением
предложению
##430
##43002
проце
условием
муниципальную
036
0301
0308
03013
03402000033220106
2049
выполнивш
056
0537
0528
05623
05483
##448
подписание
##ировать
##370
нуля
##руг
##рученко
саморег
0476
0114
014705
120
128
суммируются
##00000000000000
##00000000000130
##езв
164
##038
##0300000000000130
Отчество
конеч
конфид
поступлении
поступили
поступлением
##илось
Нес
##тверд
уплачивает
##2301001
##232200
##2387
определенный
учитывается
Рекоменд
проектных
130
13102
13498
изменять
ИНВАЛИ
вкл
##0601
##06500
##12000
перечислить
городу
##ады
выданный
выданную
путём
##255
##253
##2537
расчетом
ПОЛИ
позже
способу
##083
##08206
##СТВИЯ
##тира
##070
##0723
расчёта
комм
коммуник
##ково
##ковой
##052200
##05115
представленных
представлены
представленное
##НИП
инж
##ономраз
исключительными
257
Участники
Дополнительного
продукция
продоволь
оказанию
##ГОУСТР
##носторонний
содержание
субпод
##асад
##717
##710000
##710000006
249
##ификация
относя
##бые
188
предприниматель
##116
##1111
##00000049
##0000006100
##0000007500
##0000006900
протез
протяжен
0322464320000
0322464347
03224643670000007400
03224643920000
03224643370000004300
03224643320000003900
03224643880000000800
03224643710000006
190000
19903
рабочий
236
##510000
##5101001
направив
217
216
21761
ИЗМЕН
##нему
08095000003
0818500000822005
##918
##751244
##750000006900
приложений
##20000232200
краевая
##22000055
ОКОГУ
##732
##7320000
##7310000
свои
Краснотур
Краснодара
Красногвар
##абр
включают
##2191
эксплуатацией
недостатками
Петух
Петрученко
##ированному
2225
##6577
начисляются
##ЦИОНАЛЬНЫЙ
##урного
реестрах
открытые
Петербургский
платежных
##487
##4801
##4824
##4831
разделами
03231643
ГОСУДАРСТВЕННОЙ
ГОСУДАРСТВЕННАЯ
МУРМ
Переписка
Подписание
Разд
ФГБУЗ
ФГБНУ
расходного
##774
номером
порогового
260
##2850
##10220000
##вартов
почтовой
##24000
##358
##350000007500
##01810
##279
##2701
##2706
##193
##1901
дефектное
дефектами
##260008700
письменно
письменному
##188
№0127
подписанных
телекса
Почета
необходимость
##666
##6600
##666345
файлов
##ДЕРЖАНИЕ
являющему
являющиеся
Условная
##ценко
##096
##0900
размещён
имеются
торговое
##городского
0323264303
0323264327
0323264332
03232643806
##647
##649
##640000006100
наруш
нарушении
##2901001
Минус
Минэк
№035
№0322
№0308
№03402000033220106
подпунктов
подпунктах
врачебной
##41666345
каждая
поручителям
##аменск
возмещении
возмещается
действующими
району
##160
Коммерче
содержащий
содержащихся
##860
##86У
##8602
необходимом
необходимые
##490
##4920000232200
##152
##158
##151111
первом
40102810945370000020
Волод
Волоконов
##36920
единственного
утверждении
##1003
детских
контейнер
##лежит
последний
ЗАЯВКА
Управляющей
##лась
##870
##872
##ативной
65000
Казн
лекарственными
##ичном
2011г
труб
трёх
Приложениями
##170
территория
Калининская
##32001
##32753
##вития
увеличенного
уполномоченных
Куйбы
Кулун
№08095000003
№0818500000822005
№085920000112201
##30035
изготовление
##9706
##ЭСМП
2226315
222634500
обусловленный
экономическом
включена
СМЕТ
392000
390601001
Калининградская
##атрия
отчетный
эксперта
экспертных
414
Лицей
автомобилей
Нижнем
согласованы
согласованной
48255
6600
6686
##нологии
фондам
##УГА
ТЕХН
предварительно
##струкцией
физического
физические
##890
сопоставимых
запчастей
показателю
торговле
КОНКУРЕН
Контр
приведена
институ
технологии
Первая
##оэнерг
регламентами
10254
Беломор
администрация
интерес
##ent
КОНКУРСЕ
КОНКУРСНАЯ
КАЧЕ
функциональными
смета
сметный
Томе
обнаруженные
критериев
онкологический
лицензия
757
КРАЮ
Контактная
Ленинградское
Корр
№03722001
044525000
начинаться
03234643607
ПОСТАВЩИКА
подраздел
подраздела
##ционные
##ционная
##45370000025
5405115
Барменков
Евразийском
Индекс
Институт
назначению
инженерных
инженерной
водных
метал
металли
накоп
##718260008700
ГОЗ
143501001
федеральными
вносится
01661
полученных
Приложениях
аппарат
КГБУ
##егод
наименованием
##ужный
40102810645370000025
ориентированным
##400905
вышеизлож
областное
гражданских
здание
ПОДРЯДЧИКА
Указанный
незамедлительно
устройств
##ируемое
основаниях
противот
противном
677010
существенных
указывает
##РИД
редакция
некоммерческим
Сублиц
типа
##ant
Возможные
МЕЖРА
Чувашской
предлагаемых
Кузбасса
Екатеринбурга
прекращении
прекращается
Морская
Морозов
доставкой
культурного
##9408
союзе
выдается
продолжается
КОМП
изделиями
001151111
коэффициента
представителями
персонала
регулирование
контрагента
Основное
ГАРАНТИЙНЫЕ
510ВР
обеспечительных
Николаевна
распоряжении
40303000
ГАЗ
ГАПОУ
РОП
##надз
Застройщика
последствия
курорт
многопрофильный
##ЕЙСТВИЯ
##байт
##делеевская
пропорциональную
ПОРУЧ
Средняя
Таган
благоустройство
лабораторных
##оснащ
доходов
дополняет
производятся
выбрал
Пермь
Пермская
Пермскому
40102810845370000052
объёма
обращены
отклонения
специализированный
вступивш
##7120006100
##ЙОННАЯ
оборонного
находящегося
пожар
предложило
20746
22178
АДРЕС
плательщиком
Тамбовской
Тамбовская
Сибири
Триста
тракта
переходит
испытания
##ортивная
##ографии
руководствуется
арбитражный
8285
Жилищно
НЦЭСМП
ОЗП
##ицкая
##01932753
##0013250244
03722001
генетических
Односторонний
оказавших
теме
научный
пошлины
50597
Аксай
##ЕПАС
05905
##63300100100
##633001001001
делами
высокую
доступа
доступна
перевозку
Коврова
влияние
##уральская
реализации
##ирующая
имущества
административно
предусматривает
конкретной
конкретные
абзаце
Октябрьский
0710001
Брянской
Спас
Спортивная
мажор
казённого
ПОЛИКЛИН
КОМИТЕТ
40102810045370000002
мониторов
несостоявшимся
логистике
Шестьдесят
машины
полнения
Белгородская
Владимировны
аналогичными
МЕСТО
Объединенный
Объединенная
55133035240
603950
АСЭ
Губкин
Клиническая
СОНКО
академика
кресел
##аточным
соответ
принадлежности
активов
активации
Новороссийск
##95651
Констант
Автомат
достоверно
рассчитанные
Евгень
Международное
инструментов
КАЛИНИНГРАДСКОЙ
722401001
722400905
ГРАД
ДЗМ
ЗНАЧ
ЗНАЧЕНИЯ
Камчат
Люб
Любые
Лесная
МФУ
состоит
сокращения
приобретает
Отделении
безналичном
комбинированного
инвентар
транспортом
внутригородского
Комплексный
20726У3
Геннадьевича
Викторович
кадастровым
Архангельск
Валерьевича
Валерьевна
Богдан
Газификация
Кочковского
Револю
Указа
Худякова
альтернативных
предпола
##10308206
послужившее
несвоевременное
03232643647120006100
скорой
РАСЧЕТОВ
объёме
величина
антимонопольного
Васильевна
xlsx
Нерюнгри
Ачинск
Всероссийский
Понятия
РМГЦ
доверенность
демпинговая
##черпыва
общими
насос
00622
Подраздел
воздуш
Новокуз
выбранным
Первом
выражении
фирменное
Гайдук
противоречащие
Вожегод
Ведомость
Жилое
Радужный
микрора
талонами
##ередачи
прямо
растений
00495651
Приемка
являющееся
2300102
Нововоронежская
компенсации
ЦЕНТРАЛЬНЫЙ
Собрание
онтракта
группировочное
Территори
уточняет
Дальневосточное
05353Q36920
АЛТАЙСКОГО
22263500188
тарифам
461510
Бензин
Воробьев
Котиров
ПОСЕЛЕНИЯ
Татьяны
арифмет
бесплат
досроч
##ument
Обладание
оплачиваются
107510
012406500
операционное
получившая
№013720000122200
телеграмм
##41000452191
7812029408
электропередачи
непатентованное
Нижневартов
1027810308206
Барсукова
КОММУН
СВЕРКИ
канцелярских
Анатольевича
избежание
свободен
асфальтобетонного
АКАДЕМИЯ
ДЕПАРТАМЕНТ
Игоревны
Отрадн
дезинфиц
2СОДЕРЖАНИЕ
93936
USB
consult
msp
Бечик
БЛАГОУСТР
Ведущий
Вячеслав
ДЮСШ
ДМИТР
ЖИЛИЩНО
Идентификатор
Йошкар
Килограмм
ЛАНГЕПАС
Менделеевская
Моментом
НОМЕР
ОКАТО
Паспортные
Рождественская
Сдал
ХМАО
Хостинского
бланке
гинек
градостроительных
людей
минимум
нумерации
оответствии
очеред
паци
паллиативной
тайну
ультразв
##9020000032200
отступления
пояснений
зафиксированные
приносящей
Присутствуют
00950300000000000130
Стародубское
разъясняет
саморегулиру
014705901
конфиденци
131027
134987
ИНВАЛИДОВ
ПОЛИТ
##ономразвития
субподряд
##0000004900
03224643200000003100
03224643470000004900
03224643920000001101
03224643710000006700
199034
2176141000452191
Краснотурь
Красногвардейская
являющемуся
размещённой
Минэкономразвития
22263450041666345
КОНКУРЕНТНОЙ
института
1025401932753
5405115993
металличе
МЕЖРАЙОННАЯ
ПОЛИКЛИНИКА
7224009059
20726У32850
##черпывающий
микрорай
ЛАНГЕПАССКАЯ
ультразвук
021
00000001
210
265
295
2635
3000
344
312
326
368
380
30054
32700
402
437
417
432
497
50000
575
577
569
558
623
625
664
6658
702
710
718
750
803
823
809
839
859
945
908
924
918
97100
BS
Chern
He
SSD
Yu
ad
com
ds
eko
fp
len
mn
of
pet
pri
ref
so
stom
АИ
АН
Амм
Амур
БГ
БЕЛ
Баб
Блан
БЕЗ
ВР
Ван
Вит
Вере
Вла
Вел
ВЛИ
ВКЛЮ
Ги
Гл
Гол
Гав
Глад
ДК
ДВ
ДХ
Дени
Дом
Док
Дир
ДАН
Довер
ДУБ
ДСУ
Добр
ДЕЙСТВИЯ
ЕГ
Еловая
Жуков
Зи
ЗП
Зат
Зар
Зин
Зве
Зила
Знам
Ис
ИП
Ит
ИР
Иб
Ися
Ко
КЧ
Кат
Кредит
КАР
Каб
КВР
Ль
Лиз
Лыс
Му
Мель
Макс
Мал
МСК
Мала
Модерн
Но
НП
НОВО
Новый
НЕНЕЦ
Ов
ОП
Оль
ОСТАВ
ОКАЗ
ОВД
ПИ
Пара
Пис
Пест
Поз
Пенз
ПТО
ПАНСИ
РД
Руб
Рез
Раменский
Сид
Свод
Сале
САР
Салю
СЧЕТ
СГКБ
Снеж
Треб
Тоб
Толь
Тими
Тай
Тул
Тула
Тендер
Транзит
УЛ
Устрой
Урен
ФУ
ФО
Фин
Функциональ
Хле
Цп
Цвет
Цобщ
ЦХи
Чере
Шам
Шаг
Шестнадцать
ЭК
ЭЗК
ЮНО
Юанов
Юдина
ЮРИД
ЯВ
ЯМА
ЯРОС
ада
арен
басс
вор
вер
вещ
верн
вирт
га
госуд
град
гемат
ента
заново
кт
куп
кле
кли
кис
лн
лим
му
мор
мес
маг
министер
мобильных
нан
новый
новым
ом
ора
окт
пед
повод
повер
рей
руки
ся
сна
сант
соверш
ти
тк
тель
тек
тствии
угор
утверд
ход
хирург
цик
ции
цент
цир
целесо
че
чист
шести
№22
№11
№41
№120
##иле
##иваются
##ниц
##аф
##аем
##сий
##сленных
##осп
##оение
##ваться
##венно
##втодор
##ман
##мель
##монав
##уальный
##уловский
##хо
##7001
##771
##773
##729
##7105
##760
##7200001722000
##237
##21244
##823
##850220000
##100000000
##101001
##10003
##1000001
##410
##423
##422000
##6К
##6У
##6Щ
##644
##600000000
##663
##6200
##6700
##60000244
##кол
##пред
##ело
##ao
##АТА
##АЛА
##ПД
##ПЕЧ
##ИД
##ИЛ
##ИСТ
##ИДЕН
##503
##565
##50000062200
##йм
##34300
##923
##901001
##908
##977
##922000
##930
##тся
##тож
##тических
##лота
##чей
##чное
##чих
##чив
##ьева
##род
##риц
##рин
##рский
##щаг
##щенко
##ВО
##ЕСТ
##ЕСКАЯ
##ДЗ
##НЕР
##дет
##жные
##жановского
##гации
##ганской
##глуш
##бюджет
##бира
##фте
##флот
##филирован
##СЕЛЕНИЯ
##ЛЕНИЮ
##ЛЕКС
##ХОД
##зак
##знач
##юп
##БИ
##БЖ
##ЫЙ
##шев
##шех
##шний
##шерного
##эрг
##ev
##ЯМ
##IT
##ЧАСТ
##ЭФ
##ЩИ
##F9
##F36
##fline
##DU
##dina
##ur
##ukh
##ES
##TA
##SS
##OV
##ШИ
##ШЕСКАЯ
##pp
##ya
##yav
##енер
##енский
##ендент
##енатора
##стра
##сторон
##сткина
##раске
##овича
##овну
##рем
##рель
##ретного
##решение
##спреде
##онару
##акан
##норская
##анное
##анная
##анизации
##етов
обмен
общих
обезв
##00220000
##0098
##0020000244
##олого
##ател
##омет
##отан
##авказ
##иком
##икова
##азаний
зако
##остро
наук
нароч
наслед
настрой
##аран
##араб
##арация
##чало
##сяти
обеспеченного
##скую
##има
##имый
##имназ
##иметр
##одв
##одъем
##ельных
##ельное
##огрей
##ляемый
##еро
##ерв
##нтера
##ийся
##итум
пролон
##ованной
##осующих
##кино
##емом
соо
созд
##ораспреде
##ательные
догово
отс
пожа
##лук
обяза
Заказ
##амак
##арки
##арского
##000005
##0000700
предоставит
предоставленное
##лючения
##еранов
##иция
##иций
участии
##0101
##0105
##0168
##0159
##ником
##никам
##никовой
##024
##0275
##0218
##0220001
##020009
##инки
##инское
##ленко
##ленную
##умаб
соответствиисо
това
товаре
##чегорск
##вад
##ваемого
##вающий
подс
подоб
подал
поданного
поданных
подачей
##уса
##усмы
##вес
##мотра
##ющими
##ющимся
сроке
работа
предусмотренная
застрой
служе
##обров
##обиля
опуск
оплачивает
оптических
приёма
реп
реб
услугах
заявителя
заявлении
##удового
установку
##ственное
осмотра
Промыш
##нача
##начает
##приц
документам
##221
##2266
указанное
прошед
##ительной
Наимен
Напр
Начало
кас
кап
##опян
##оподъем
003
##деющие
##десяти
заключает
составлении
##утов
##утатор
требованиямстатьи
формуле
формируемое
проведением
поставок
внесены
##ловск
##ловского
##ивов
##иванию
Контрактной
Контрактный
1088
##квенатора
##рания
одном
##ОВАЯ
##ОВСКОЕ
Пригла
##00133
##00118
##СТЬ
##озан
выписк
##АНСКО
##ОНАТ
##ольский
##ользу
##очки
##очинская
##ающей
##КТНОГО
##107
##1035
Стар
Стро
Стрель
которыми
##45100045
органами
Подготов
Подлежит
облад
##НОМУ
##435
##0007
##0003300
453
038
##идова
##имира
20кВ
20456
20516
20756
выполнением
##зулук
050
0501
0533
0518
0515
0517
05702
05303
превышающего
##4441
##4410000
##ировки
соответствующем
соответствующую
##3791
##льтур
Избира
##ался
##алось
объектам
##руч
самозан
048
0475
049205
046577
0176
013920000012201
0128200000122005
121
120000
1207
поселок
ПРЕЗ
118
111
1100
пункту
пункты
ОБРАЗОВАТЕЛЬ
##028ВР
процентами
##тоф
1603
1641
16500
1652
1689
##водхоз
##03102
##0399
##ородово
дате
Отта
консульт
авансовый
авансирования
305
309
устанавливаться
произой
правовых
правовому
правонару
Неотъемлем
уплачи
упущ
##2328
##2318
определенной
определением
##динская
##респонд
допуст
##ставление
КОНТА
производит
производитель
производство
проектированию
132
копий
отказывается
149
сопровод
##устанавли
##ускается
сопровожден
##069
##0688
##126
##12001
##120100100
путей
допуске
порядком
##25000000
##254441
1500
15386
ненадлежащей
ненадлежащем
ПОЧ
ПОМО
ПОПЕЧ
##081
##084
##08020009
##075
##0755
##0700128
подтверждаться
##ковская
##0001800
##0001900
##00014722001
##0501
##0502
##0507
##050004
226
представля
представил
представлением
представлена
##632
##634
##6318
##6364
неустран
##риджей
Допускается
иную
инструкцией
250
259
25821
##ЛЬНОГО
##ЛЬСКАЯ
продлению
Предлож
##габайт
##екретарь
Поставляемый
отсутствием
адресам
##инансирования
##711
##714
##715000
##7100133
24000
24690
испол
друга
##ификатор
перимет
БАНКАМ
##илин
обслуж
прикладывается
деления
180
183
##0000005
##00000063
недоп
субъекта
170166
##лавль
03224643630000006
03224643010000001700
03224643750000006900
03224643350000007500
0322464325000000
1966
19208
применяемых
применяемые
рабочие
##517
##513
##510001
правоустанавли
2147
2181
ПРОЕКТНО
083
085920000112201
0848300066122001
081720000032201
##АРНОЕ
##916
##9123
##91000001
##91301
##917729
автодор
##750100100
##7522000
##7540
##75487
Положению
приложено
техническая
техническую
##2000071
##2000009
##22000003
##22000012
##22000007
##22000011
##22000015
##22000060
##22000080
##22000038
ОКОН
ОКОП
ОКФС
##73220000
##7398
##731000
##7340000
##7300014722001
##ателями
317
##983
##неров
ФОРМУ
##21000047
##торгов
##610002
##330355
##ированы
##ированное
полугод
##щимся
информационная
22222
222501001
222712
2220275
##чина
##048
##0404
##0414
##04737
конкурентную
унич
предоставляемое
предоставляемому
оформленной
оформлены
##ЦИОНАРНОЕ
финансовой
финансовое
Новая
видам
специальных
##уринский
Санитар
НАЦИОНАЛЬНЫЙ
НАСЕЛЕНИЯ
заключаться
##9500
Коды
Республиканский
письмом
##2007398
освоение
Разрешение
ФГАОУ
##779
##283001
освобождение
строение
строительного
060
пешех
Электронной
Электроника
потребность
потребителей
##242
##24607
получить
Независимой
Главой
##1900
##1922000
передачей
Заявление
##268
##2601001
##26220002
юридический
##187
##1806
Муниципальным
возможно
##460
##466
№017220000
№013920000012201
№0128200000122005
подписана
двусмы
##ЖДАНСКО
##МИС
итоговом
##6622000024
##6600000063
заключенным
причиненные
компон
компресс
Самородово
подпися
понижения
Постановлении
являющейся
являющемся
являющийся
##788
##ологической
исход
Формула
##шеглуш
размещаются
размещенный
имеющей
0323264325
0323264371
0323264346
0323264329
0323264387
03232643426
0323264324607
АУКЦИОННОЙ
ОГБУ
Московское
##297
##294
##2906
##29220001
№0387
##линский
подпункте
##кционерного
Рославль
##3930001
Техническом
##41522001
##коммун
кодекс
334
поставляемым
поручений
девятнадцать
следует
основе
основная
действующая
Самарский
##1648
##160100101
03222643500000005100
03222643410000004500
03222643610000005900
03222643360000004200
единые
едином
описания
признать
ОБЛАСТНОЙ
Комсом
обязательного
обязательном
управлению
управляющей
содержащимся
необходимой
##493
размерам
##1560
##1550000
##ативе
Краснодарский
##3601001
##3622000143
##яттинский
термины
##1000261
особо
деталей
##74220000
##74002
3012
периода
предприятиям
постановки
##000326220002
последующего
Управлении
возвращен
возвращаться
##8722000048
##етыр
ЦЕНА
ЦЕНЕ
##1322000001
656
название
Новосибирского
Новосибирская
Казани
САБ
##6904
указав
##нимание
##340
##997
##9922000024
##1773
##22000133
##22000127
##22000170
##22000179
Установить
document
##tplu
четырех
##ографа
024501
бенефициаром
предъявляются
десятью
##новременно
7836
7817
78515
78254441
Кущев
##аковка
руководитель
№0848300066122001
##ile
##3003
используемая
##00100101
двухсторон
претендент
2226312
2226319
2226318
222633500
##5009
##220005
##22000671
экономической
экономические
7725
7728
7709
770801001
СПОРТ
392
июня
##женными
дополнительные
Центральной
обнаруженными
возникшего
возникнуть
##22001043
разъяснения
430
Владимира
482101001
480700128
##ЛИНСКИЙ
специалиста
667
Сахалинская
Сахалинэнерго
помещении
квартира
характеристиках
Примечания
Привед
итоги
Запрещается
367749
##3000468
невозможность
подавшего
запраш
##30000244
##3000050220000
##ламентом
приведет
третьего
Воронежский
Период
##22000239
##2200021322000001
значениям
печат
программы
ИНФОРМАЦИОННЫЙ
КАДА
Такие
источник
##701000001
инициативе
МОСКОВИЯ
споров
сплит
сметным
##атегор
494
493
497700
##ецкой
Продукции
лицензию
принципал
4010281044537000005
4010281054537000003
комплекта
Контактный
Ленинградский
74050004
Корректировка
##0000082200
экспертизой
406018
предусм
предусмотреть
03234643507
ТЕХНИЧЕСКИЕ
нормам
этно
этой
##ционного
301018103
03214643000000015100
Департамента
водона
водогрей
наказаний
##01329
разработанной
СРЕДИ
853
класса
транспорту
транспортная
143082
Крыжановского
федеральных
##ЕМЫХ
судебное
Ставропольского
КСЦ
##ИНСКИЙ
ответа
Кузь
58190
58271
5824000
входящий
наимень
Совмест
##грузки
##КУТСК
ориентированной
московскому
##4008
Обязательные
областного
контроль
Департаменту
Истра
гражданской
##70220001
подготовке
МАКСИМАЛЬНОГО
145739
этапе
индивидуальным
классификатор
##РГУП
677001
677018
Кирова
лоте
существенные
подразделе
Ивана
смес
##antplu
сообщений
защищ
Курской
Муром
ОДР
Упаковка
сельское
##20220000
##202750100100
департамент
Приволжский
Приволжья
аква
акций
балл
баланс
##1000075220000
##тивных
##ямую
кабельной
распоряжения
внутреннего
Конкурсной
взыскать
равно
равную
подписываются
подписывает
продолжить
временного
30101810100000000
Оренбургской
##50200
##ьянов
РАССМОТР
регулировании
Бенефициара
значений
значимости
контрак
цифров
##5722000028
##анчуринский
разрешаются
переторжки
РОССИЙСКАЯ
страхованию
Мурманская
проспекте
Донецкой
Металли
##ИВНАЯ
##чевского
комплексов
картона
картографии
картриджей
40102810545370000012
40102810545370000075
4060281060000
4060281074002
привлечении
привлеченными
Балаковского
распоряжением
40302810
693000
ГАГ
партия
налогах
поручительство
Иванова
Ивановского
Горно
Удмур
долгов
жизни
отрасли
утраты
##6000019
##600006К
##02004
40102810645370000057
Омскэлектро
Тульский
лаборатории
лабораторного
##офабр
##8122000109
##01701001
169600
регистрационный
Пермского
топлив
Большеглуш
Исправ
Использу
Ленводхоз
ОМВД
##нгуловский
отклонить
коммунальные
специализированного
Арбитражный
ДОПОЛНИТЕЛЬНОГО
сиротам
ЛСР
Одинцово
СВИФ
##3001181
03732000
2217729
2227111
Разъяснения
КРАСНОДАР
профессионального
Тренаж
Трудового
марта
неисправностей
конкретного
Смоленск
Смоленская
Приморскому
73068
80692
82800000000000000
Жилищное
НОВГОРОД
биофабр
молока
уборки
обжалу
Александровна
Александрович
генетического
Сургутский
Виктор
ДЕТСКО
ДЕТЕЙ
ДЕТЯМ
Одновременно
владеющие
оказа
оказать
##цкому
подключ
Представлен
##22002980
##220027502
комплексной
повторного
##40200003322010723
Акопян
Бузулук
Карбол
Юрьевича
конструктор
40102810145370000
позвол
407028105
406028105
независи
ТУЛЬСКИЙ
перевозок
Зеленая
Зеленогор
Пушкинского
Пушкино
влияющих
газораспреде
##уральский
отделки
отделении
отправления
реализуется
кадастра
0187200001722000
бездействия
имуществу
##483000445
рассматривается
охраны
абзацем
Октябрьское
экземплярах
экземпляром
Брянск
Брянская
МАУДО
Олеся
утере
##ничная
##80220001
##6020000082200
##3021560
##МАЗ
013720000122200
Регистра
Регламентом
ПОЛУЧ
Операционный
##2000236
декларирования
обжалованное
надзору
ПРОФЕССИОНАЛЬНЫЙ
безвозмездно
ЛР00712
ПСЗ
Системе
СТАЦИОНАРНОЕ
##лотрас
##электросеть
10651
полномочий
##реждениям
16565
допущены
перчаток
##11000023
Владимировна
МЕСТА
продолжительности
диагност
551330355
603076
628433
901758
Губкинского
Соци
СОНО
Службы
ветеранов
светоф
ссылки
ссылаться
уровне
##3000380220001
обработки
обработку
обратно
##аточный
пересечения
Красного
Новороссийска
передава
##ензиар
компьютерного
Чапаевский
Автомобиля
минимальный
привлекается
привлекаемым
сервиса
достоверности
санитарная
Евгения
толкованием
толкований
Заведующая
ГРАЖДАНСКО
Исключение
МФЦ
ТРУ
Троицк
УТ32
анкет
внести
литер
личная
торшерного
##avat
##525000001
##ротехн
##щемся
##атайский
прокату
##0014321244
20736Х
##2300006622000024
223744
2237445
Петровича
восстановление
транспортного
присоединения
аптеки
№03732000
стандартам
##inaDU
удостоверяющих
20726Х
Геннадьевна
Производителем
Дмитрия
препятствующие
ОПРЕДЕЛ
644027
745701001
Абакан
Газопровод
КВр
Редь
Редю
СТРОИТЕЛЬ
Талица
Учреждениям
ситуации
ситуаций
##412890
напрямую
пробега
##0100004
выставление
действительностью
часовой
различные
456080
03133035240
125040
Неисправное
почтовые
##1622000057
22263300501
##300000122001043
УСЛУГИ
учебного
величину
земельный
антимонопольном
заинтересованного
рентгеновского
Луганской
ЛИСТ
Макарова
Многооборотная
Тверская
Черка
Чайкиной
Ямало
космет
косвенно
ключей
масла
секвенатора
сборах
№0187200001722000
##литамак
##ЛАВЛЬ
закупаемого
##0200112
известить
своевременное
оконных
Заречная
##теплоэнерго
##51808
##352000010220000
##35200009922000024
Северавтодор
тротуаров
2226330051808
##7010003000
требуемого
легкой
агрегатов
045700278
ИВАНОВСКОЙ
ИВАНОВСКОГО
деревня
3662
491565
547253
Ненецкому
Плане
Рудой
Толма
гидротехн
гибели
грузоподъем
зоны
пассажир
твердой
оборудованием
неоднократ
##ардиограф
случайной
одобрения
аварийного
иммунологии
##0500600006К
170047
0323264365717
Кондопож
Основанием
30101810500000000674
завершить
40102810745370000018
467850
профилактики
противопожарная
благоустройства
функционирования
ВОЛГОГРАДСКОЙ
Девятьсот
камеры
проезжей
ПОДГОТОВКЕ
30301607028ВР
эвакуации
Коммунистический
7787
salavat
АТЦ
Волжский
ВЯТСКОЕ
КЛП
Костром
Космонав
Кинель
КАВКАЗ
Локальная
Масло
Мухомор
РЦОД
Сарове
Урюп
Харанорская
голосующих
жалобы
кладби
мощностью
механиз
сдаче
спецторгов
терапевт
##ИМОСТЬ
##ЕФОНА
##реживанию
банкротом
Стерлитамак
разрабат
процессу
05073001181
05592D
016850200
##2300011622000057
03221643980000001600
230901001
##200008422002980
##2000002220051
##2000030220028
##210004600
222637602
Кодексом
03232643197010003000
65012387
667801001
Белокатайский
КАЛУГА
##671000103
международных
персонал
##32300038122000109
Гордынова
Прикреплен
40702810208020009
ВЫПОЛН
166789123
ТЕРМИНЫ
Конституцией
гардероба
##912000006220072
30101810200000000823
кондиционеров
салфеток
заболеваний
##уберкулезный
ассортимент
469333
69876
ВС0500600006К
Ветчин
Внешний
Галкина
Диве
ДГКП
Мончегорск
Михай
Майя
РОДИТЕЛ
Сорочинская
ТЕЛЕФОНА
Шухто
Школьная
Электрокардиограф
аффилирован
бензина
километр
сдать
##6280000700
##лимп
##акцина
неуплаченной
подведомственных
рефинансирования
действовали
030130033
выполнивший
056230399
047601001
011403102
Несоответствие
##0522008
25728
относящиеся
протяженностью
##73100005722000028
Петухова
МУРМАНСК
Раздоры
##492000023220048
Волоконовская
территориях
Куйбышева
СМЕТНАЯ
668601001
интересах
КАЧЕСТВА
016614901
противотуберкулезный
КОМПЛЕКС
##надзора
Таганского
вступившее
Евгеньевича
ЗНАЧИМОСТЬ
предполага
телеграммы
Нижневартовские
КОММУНАЛЬНОГО
consultantplu
Вячеславовича
пациента
конфиденциаль
ПОЛИТИКЕ
9710075487
Chernyav
Yudina
adm
fpc
lenenergo
offline
petukh
priv
stom1
Аммосова
БЕЛГОРОД
Бланки
Ванав
Верещаг
Владелец
ВКЛЮЧА
Гигабайт
ДАННЫХ
Зианчуринский
Зилаирский
Знамени
ИРКУТСК
Исянгуловский
КЧРГУП
Лизы
Лысак
Мельникова
Малах
Модернизация
ОСТАВШ
Пись
Пестрав
Позиция
ПАНСИОНАТ
САРАНСК
Салют
Тольяттинский
Устройство
Уренгой
Финно
Функциональные
Хлесткина
ЦХиСО
Черепов
ЮНОШЕСКАЯ
ЯВЛЯ
ЯМАЛО
ЯРОСЛАВЛЬ
бассей
вернуть
виртуальный
градостро
гематологического
нанес
поводу
текста
угорский
утвердило
центре
цирк
##сийской
##85022000046
##500000622003
##ЧАСТЬ
обезвреживанию
наследия
настройке
##имназия
пролонгации
пожаре
##021841
Приглашение
Стрельникова
##451000452474
05333021560
05702412890
05303J41980
##44100008022000051
017601329
ПРЕЗИДЕН
ОБРАЗОВАТЕЛЬНЫЙ
16413791
1689754
КОНТАКТНОГО
ПОМОЩИ
ПОПЕЧЕНИЯ
##63180100100
##63640100100
2582185
##710013312244
периметраль
03224643630000006001
196603
правоустанавливающий
2181451000452474
##91301202750100100
##9177290100102
ОКОПФ
##7310003901
##2100004722000020
полугодие
222027591301202750100100
##04049177290100102
##047370001900
уничтож
Санитарный
пешеход
##1922000418
двусмысленных
подписями
03232643876280000700
03232643426210004600
03232643246070003300
##2922000163
##39300018722000048
##15500000522008
##100026122000054
024501901
785150001
7825444176
СПОРТИВНАЯ
4807001289
3677499
##300046822000127
40102810545370000036
7405000428
##100007522000023
РАССМОТРЕНИЕ
Металлистов
40602810600000200112
40602810740020100004
Удмурт
Используемый
СВИФТ
221772904049177290100102
Тренажера
биофабрика
##2200275022000236
Карболин
газораспределения
##48300044522000671
55133035505
анкете
##35200001022000037
грузоподъемных
03232643657170006200
6501238703
40702810208020009601
ВС0500600006КМИС
РОДИТЕЛЕЙ
05623039960
consultantplus
ChernyavinaDU
YudinaOV
petukhova
градостроительства
222027591301202750100100710013312244
023
063
1а
1ЗА
212
211
2КЛ
365
348
395
328
364
386
320
399
410
412
463
471
475
466
460
545
506
591
521
595
5018
5500
5510
550
589
531
555
567
5753
602
606
665
678
686
649
632
660
7а
723
712
704
735
746
720
787
760
759
701701001
807
861
848
877
826
866
832
9E
903
971
911
977
946
978
999
981
972
90241
A0
A2
A4
AE
B1
BC
BB
Bec
Dx
Doc
IP
Un
Vi
cp
dg
en
fc
file
gu
gar
li
oz
pv
rk
sl
uz
Ах
Ад
Аф
Ага
Актов
Агент
Академ
АРМ
Бол
Более
Били
Била
Боча
Бело
Ботан
ВИ
ВМ
Вес
ВОРОН
Вариант
Вакцина
Глу
Галее
Гали
Генера
ГБОУ
ГБДОУ
Гроз
ДИ
ДН
Дз
Дор
Дар
Дого
Дек
Дять
Декл
ДАТА
Добров
Еж
ЕЭС
Жатай
Зв
Зд
ЗКТ
Знач
Зах
Иж
Иг
Иль
Изу
Ишим
Игор
ИГК
К5
Кара
Контра
Крав
Кир
Коль
Куч
КТП
Кольская
Канский
Калева
Калев
Кавказ
ЛУ
Лим
Лит
Лид
Лекар
Мы
МК
Мац
Мож
МАЯ
Мали
МОЛ
Мотов
МИН
МТУ
МДОУ
Меш
МИНО
Мартир
Нак
Нар
Норм
Наль
Нез
Навли
НАРОД
НЛР
Натрия
ОА
Оч
Оз
ОФ
Оку
Ори
ОШИ
Олимп
ПТ
Пов
ПСИ
ПНИ
ПЕТ
Пят
Паш
ПЛА
ПГУ
ППК
Ром
Род
Рам
Разм
Рум
РСТ
РАСТ
РНИ
Рах
Су
СУ
Сак
Сав
Сле
Соп
Сро
Сорт
Спец
СЕМ
Соответств
Сосн
Семнадцать
Счёт
Судеб
Секретарь
Ту
ТВ
Тра
Тара
Тим
Тит
Топ
ТСК
ТИП
Тыр
Ух
УД
УГ
УФСИН
ФА
ФР
ФН
ФАН
ФАД
Фасад
Химки
Хмель
ЦИ
ЦТ
ЦТП
ЦМС
ЦГКБ
Чеч
Читы
Чка
Чех
Шести
Эр
Энг
Эду
Юм
Яр
Ялу
Яценко
ам
аз
ации
аку
апрос
анг
аэр
алюмин
акционерного
бр
баз
бере
бла
бут
баш
беспе
битум
вд
вора
виз
вания
веб
варов
вяж
ведом
венер
внимание
гот
гимназия
ден
дре
дого
див
дур
дирекция
дни
ель
ечения
жен
жиль
зв
звещ
зерна
ии
иц
ий
ил
иная
иском
истор
к1
кр
клу
казчик
кож
кла
крит
куз
круг
категор
лу
лов
ления
лечебно
ма
ме
мен
мак
ман
мск
макс
май
мяс
нав
ност
нож
ные
огов
очев
ошиб
оложений
пат
посуд
праз
пала
постоян
рост
рия
рог
рус
рук
су
ср
ски
сли
син
сне
сист
состоя
справ
скры
семнадцать
те
тон
тав
тест
тары
фз
фак
фле
фру
фарм
це
цвет
чи
чение
чиком
ши
шли
шка
шага
шерст
школ
щего
ыть
ям
яз
ями
№40
##иа
##иэ
##иной
##иона
##иской
##иност
##игается
##иобрет
##нат
##нав
##нар
##нский
##нская
##ниж
##нинская
##аго
##алу
##ауз
##свет
##счет
##сская
##оуст
##осян
##унт
##ущего
##ущей
##уйбы
##центр
##цова
##цева
##ывает
##хар
##хина
##хинского
##703
##725
##7005
##741
##2А
##2005
##800000000
##801001
##807
##898
##833
##83001
##8739
##164
##10100100
##140
##443
##403
##409
##4013
##40005
##4035
##4023
##4080
##6Ъ
##605
##609
##60000000
##6450
##кий
##ковых
##каменск
##по
##пуск
##плата
##площад
##пуль
##пцов
##ека
##H800
##ad
##ac
##АБ
##А907
##КОД
##УХ
##ПОРТ
##ПиС
##ИА
##ИАЛЬНОГО
##ИЧЕСКАЯ
##523
##512
##598
##528
##йца
##AC
##AZ
##308
##391
##365
##3200
##366
##3250244
##3983
##922
##9000
##9200
##960
##9630
##97700
##тая
##тое
##тина
##тенз
##лам
##лоном
##лосеть
##чного
##ьей
##яева
##ятые
##яющимся
##рный
##руд
##ik
##iC
##it
##ic
##ща
##ТЕ
##ТН
##ТБ
##ТОР
##ТИН
##ТИВ
##ТЭЦ
##ТЕЖ
##ТАНО
##ВЫ
##ВМ
##ВПиС
##ЕКОМ
##РП
##РО
##ЖЕНИЯ
##НСК
##НМЦ
##НГОВ
##днич
##дорож
##жон
##жит
##гар
##гический
##горов
##грев
##гимова
##бо
##бина
##фики
##фованный
##ОРА
##СБ
##СКУ
##СМП
##ЛЫ
##ХАНГ
##зно
##зевского
##заф
##юк
##БГМУ
##ФИН
##ФПД
##шет
##шей
##шую
##шал
##шимся
##km
##s3
##srb
##ed
##ГУП
##ГИНСКИЙ
##ЯЕТСЯ
##IP
##ЗП
##ЗНА
##ЧС
##ЧФЛОТ
##Ч97700
##Э03
##ЭКС
##МК
##МОН
##МТО
##Ю139
##ЩЕЙ
##DC
##b3
##by
##gr
##mi
##ЦД
##X207
##BA
##MM
##cov
##p1
##енном
##стер
##стого
##рано
##рати
##рарный
##рагимова
##овав
##овремен
##овался
##спек
##ония
##онтом
##онова
##акова
##нок
##носу
##анном
##анную
##ствием
##етический
##етеров
обо
обя
обед
обуст
общую
##0024
##0030035
##олия
##олок
##олков
##ныауз
##атого
##атанном
##орная
##орид
##омля
##омехан
##омобильных
##отех
##отехн
##отврат
##редел
##редительный
##икид
##азина
##азификации
заку
закл
заклад
##ечатанном
##голь
##осто
##оступ
нахождение
наборов
##оставки
##оставлении
##оставлением
обеспече
обеспечени
обеспеченных
##скав
##скиз
##скох
##оков
##одед
##ельево
##ельсская
исполнени
##оград
предпис
предох
##лятор
##ерк
##ерва
##ерирующая
##ители
прож
проя
проставлением
##упки
##упино
##ованного
гаранти
##оговый
неу
непр
недел
неисп
неиск
закупк
закупаемой
##ойного
##ойка
##ойности
##емую
##личе
##лина
##лись
##орасчет
##ательный
##ательное
##едель
отка
отодв
##иево
##исов
##ребойного
##ательством
##аясь
##лург
обязате
##арных
##арного
##арда
##аренко
рафин
##000002
##000019
##000014
##000053
##00001600
##онах
соответстви
##люй
##лючен
##еракт
##ицка
Общ
Обращ
котла
стер
стола
стало
##0161
##0148
##0147
##0170
##01000001
##01660
##альского
##026
##0207
##0230
##ленном
Заказчиков
гарантийн
##изил
##изацию
усмотрен
##умана
ценовыми
участники
##оябрь
##важ
подъем
подроб
подаче
поданные
поданная
устав
счету
##мотрите
##ющем
издерж
работами
работниками
предусмотренную
запр
застройщик
##облюд
##обусов
опр
##ться
приют
приведения
пригод
природ
контракты
контрактных
реорг
решении
репрод
режим
##ЕНТЕЛ
##ЕНСКИЙ
заявителе
заявкам
заявками
такими
##еляева
44701
электронные
установкой
##анка
выход
высот
вылет
выгода
оссийской
Прох
ПрОП
20266
##приним
Федеральная
Федеральному
статья
##2220
##2247
##22751244
указании
проче
проход
##ительном
товарах
товара15
##амид
##орядительным
Наим
Наблюд
Надежды
##опорта
максимально
максимальный
действительно
рубли
0033
0049
##укцию
##укцион
составить
составлена
составленный
##утб
##утация
заказчиков
проведут
внесенное
##ловые
##иваясь
##ующая
##ующей
108
10652
10650
##квартир
товарно
товарных
извещать
##еволож
поля
полиции
полимер
##ОВЫХ
##ОВСКУ
##культур
Прил
быт
##0010001
##СТОЯ
##озавод
выплачивает
выпиской
##АНЫ
##АНАЛ
настоящая
##ольном
##елезно
осуществлением
##ающим
##КТЕР
##1051
20100
##РАЦИЯ
##РАБО
##РАКТЕР
Стан
Стомат
Ступино
##453
ави
Подтвержд
разными
разнар
##4301001
##4361
##43263
##000488
450
4536
454080
032
0351
0327
0387
03701000
##идт
##идно
определяемый
##реждений
20601
20740
##жева
выполнена
выполнил
выполнено
запросы
запросов
0511
0574
0569
05901
05222
##444
##449
##44630
##ировалось
дооснащ
##371
Издел
объектом
казн
сварки
самим
самосто
0407
0420001
042202
04017
017
019
0102
0111
0158
01700
017220000
0145200000422001
01613000063220002
01533000667220000
0163200000322005
01745000011220035
019706
011806
010030035
1236
127540
перек
перевод
пересе
переводит
##00000000606
ЗАО
ЗАКРЫ
ПРЕСТ
116
1110
котировочных
томографа
##ДАВТ
проценты
кредитных
явилось
##032
##034
##0300
##0389
##0353
##0300045
##032706
##чивает
корректиров
корректировка
корреспонд
операция
ДОЛИНСКИЙ
Отбор
Отдела
конгра
##хода
308
##илет
аукционную
правом
правительства
правовая
Неуст
Непред
упки
##2300
##23001
##данов
##дании
##ещение
безуслов
окраске
определена
##рыва
##ЕЛЫХ
##динский
##динского
##45370000016
корреспондентский
Реабилит
Реутов
проектор
138
134
136
133
13450
копии
##010010005
Платежное
##овыва
изменяется
изменяющимся
##лючительных
##лючительные
ценах
##СИЯ
141
1428
14671
##мета
КОНТРАКТУ
всей
##усты
##усторон
##064
##0605
##0634
##06000016220000
##127
##1245
##120001
##1250
положение
положительных
##ТАМ
##ТАЛЬНЫЙ
Гарантом
##ационным
Проектная
##КАСИЯ
выданных
##257
##2500
##2580
157
156
1597
расчету
##лоэрг
позиций
способы
способными
способности
959
##087
##0800
##0811
##07005
##07020000
подтвержденных
подтверждены
подтверждающее
экологического
эколого
расчёт
искус
##ковая
##кового
##050001
##05000000
221773
представление
представителей
обязаны
возвратом
##6335
победителей
неустранения
##утствующими
Участие
инспек
255
253
##ЛЬНОЕ
продав
продления
изменениях
оказанием
##ахт
##ППУ
Предельное
приемку
приемка
##КУПОЧ
содержаться
адресов
##айх
РОССИЯ
тыс
сентябрь
Кратов
##715
##7164
242
2463
2465
##дио
ПРОИС
##илихинского
отношения
обслед
обсужд
НДС20
деловая
189
18303
предпринимателем
обслуживании
##113
##1100
##1199
##1160
##00000065
##0000003000
##0000009100
##0000002800
##дарственных
##ОВОЕ
Забе
Задании
недейств
связью
малых
малоэ
маломобильных
##РЕЧФЛОТ
##шениях
ДОКУМЕНТАЦИ
единицам
площадку
##ОЛГА
172
175
172266
0322464376
03224643080000002200
03224643410000004500
03224643420000004600
03224643040000001900
03224643640000006100
0322464360000000
применяемыми
Банковской
2300
направленных
направлением
направляются
следующей
следующую
213
0861
084350000022200
0865200000322001
##АРЕЛЫХ
##910001
##910244
автобусов
##ВЕЩЕНИЕ
##754000
##есник
##есное
приложенной
технический
технически
##даев
##2000056
краевого
##22000053
##731
##7337
##7380
##730143
313
3123
##982201
отказано
Красноз
Красноарм
Краснокаменск
предложениями
ФОРМИР
включаются
##2161
##211244
##2101001001
снизил
##615
##613
##61702
##6170100100
##330
##338
##3391
##3328
##33001001
Петроп
##ированными
##ированием
трест
третий
22237
22261
222100
222623
222263
2227105
222101001
##чинский
измерительных
##0059
##04200
##0474
##653
##65063
##65386
конкурентного
медицинскому
медицинскими
оформление
оформленных
начисленным
финансовый
ПРОВЕДЕНИЮ
Вывод
Выплата
Новоб
виду
специфики
НАДЗ
заключением
##торая
открытии
##тового
платежам
платежные
##4878
##4836
##48101
##4894
##4845300
##957
##959
##9595
образец
образованию
питанием
помеш
ремонтом
стоимостного
расходах
##778
##774000
порт
портов
поровну
266
269
##2827
##28500
освобождающее
##1020000
использован
использовался
унитарного
унитарным
прикрепленный
прикрепленным
ДОГОВОРА№
уклонением
почте
российской
российских
потребовав
##247
##241
##2401
##24101
##2401001001
##22003
##220041
получать
получением
получателем
##270
##2746
##АУЗ
Главе
Главное
##194
##1901001
##1960
##190000003000
дефектный
дефектах
22302
22389
##2604
письменное
юридическую
##464
№016
№015
№0169
№0158
№0168
№0145200000422001
№01613000063220002
№01533000667220000
№0163200000322005
№01745000011220035
№019020000032200
двусторон
фактического
284
289
Поста
причинения
причинной
выполняются
выполняемые
ремонтных
297
296
распредел
распорядительным
регулиру
420501001
несущей
##7810
##78000000
##7822000
##ологические
Товаров
Товарных
восемнадцать
исчерпывающий
##ОДОР
##ОДЕЖ
Форму
Формат
##099
запрет
запрещ
Единицы
№15
№1740
Закупочная
размещены
размещенным
размещенная
включенные
0323264322
0323264317
032326439866
03232643046
ОГКУ
ОГЛАВ
##642
##6402
##6470
##64000488
Московского
взятых
##290
##2900
##29244
##29063
№0351
№03212
№03351
ГАУК
приказов
272
270107
2728500
Консульт
Преодол
Претенз
##390
##394
##396
##399
##ровольном
Техническому
Техническими
3328
33013
330159
Замена
##МОЛЬСКАЯ
поручению
##ТЫЙ
ограничение
ограничиваясь
действующий
действующих
##169
##16019
03222643718000008700
03222643270000003500
03222643670000007400
03222643420000004600
03222643040000001900
03222643190000003000
признание
признаков
ОБЛАСТНАЯ
обязательному
Объектов
##86000
##86050
низкими
##4966
##156
согласование
первичном
Осетия
ответственных
40102810945370000063
40102810945370000084
##36701000
##36376
##ятие
ОГРНИП
единовремен
терм
утверждено
утверждаю
детского
детская
##ЧЕСКИЙ
##ержинского
уведомительном
уменьшена
уменьшаются
##0003200
последнее
ЗАЯВКУ
##1050100100
##870000000
происходящего
ЦЕНОВЫХ
##130
##1300
сведению
657
655
650301001
650300045
назем
САМО
Типоразмер
##696
##6900000065
эквиваленте
350
358
359
3500
##010010022
##010010068
301018100000000
##342000001
##990
Приложен
##1751
##170000002800
##176470
##22000101
территориального
Актом
##327310003901
социальных
РАЗРАБО
Городского
предъявлен
предъявлено
Примтеплоэнерго
увеличенной
##ышь
##УПРАВЛЕНИЕ
уполномоченный
##6091
##аковская
руководителем
совет
№083
№081720000032201
№084350000022200
№0865200000322001
уклонившимися
РАЗДЕЛОМ
##3008
##3006450
##3007380
##2201170
##образность
Северная
##970
##97010000
первоначальной
выявлено
222631102
2226340005
2226364000488
2226316019
##580
##584
##атория
4010281024537000005
ЗАКУПОЧНОЙ
электропр
электромехан
экономики
770
772163
77205
ВОЕНТЕЛ
Соглашения
Соглашением
СПК
вторую
390
394
дополнительный
##ОКАНАЛ
возникает
возникшим
возникшие
Лицензиат
##КОЙ
связанным
Нижнего
страной
стране
№301
##590634
484894
единственный
662161
силовых
##ажут
##аровский
РКС
Лиск
фондов
фондом
##опасности
##ающиеся
Североуральская
ЗАКАЗЧИКОМ
Электроэнерг
##212000047
##21201660
Руководителя
Специализ
##896
##30008
сопоставление
подавшим
запечатанном
безопасного
Западная
1108
Тюм
официальных
торгово
##КСА
##3000038
##300005800
присутствующими
приведение
приведенным
Настоящие
относить
технологическому
технологическом
Перво
##885
##6002580
##НАЛИ
##НАКОМ
усиленными
Председателя
Новгорода
Новгороде
##22000299
№401
##42001
##420014321244
печень
факсов
##яжское
2021г
Ленинский
Ленинского
телекоммуникационных
102003
1023601
интеракт
ГКОУ
##70165063
инициатор
Росатома
МОСКВА
МОСКВЫ
Собол
Собственные
апт
минус
спинки
496
Нормативное
Томская
##бины
##СОМОЛЬСКАЯ
разногласия
обнаружены
РЕЕ
РЕАБ
критерий
критериям
онной
##гинал
конкурсных
конкурсного
ПРЕДЛОЖЕНИЕ
7534
75632
##улым
##ульская
##ьевны
##ьевск
##ьевка
##говая
комплектации
комплектования
завершению
заверенная
Алания
##ПИНГОВ
##ЯЗИНО
ОКРУГУ
2009
20086Х
скота
##роительный
0323464346
03234643718260008700
0323464336701000
03234643327310003901
40102810245370000019
исследовательских
нормальную
этим
Ставэлектросеть
##АРИНА
наступит
40102810045370000016
30101810600000000
03214643000000012000
54182
Арт
Иници
Инжен
Индивиду
##200096
Обществу
воды
водоканал
водоот
накопления
наклоном
сервер
разработка
ГОЩ
ГОБУЗ
кВт
классов
##2202450
удовлетворя
САХАЛИН
квалификационным
оригинальных
Владимирское
143502
46774000
Крыма
федеральной
корпоративной
судебного
Хабаровский
грамот
##ПОРАЦИЯ
##54220001
##ТЬСЯ
20196Ц
стандартов
Кузнецк
Алтайское
КГУП
наименовании
отзыве
принятым
предъявляемое
ОБЯЗАТЕЛЬНО
Должник
Рязани
Совета
достижения
определенным
ориентированные
Иркутска
тепловых
gov14
докажут
Обязательств
##02000010
ОТКРЫТЫЙ
бухгалтерия
ОЦМР
гражданского
##7027
##ГРАДАВТ
##00000622005
подготовлена
ВТМП
улице
индивидуальной
индивидуальных
индивидуальными
САМАРСКИЙ
Сбербанка
884
994
Марьевка
Указаны
Указанное
устройством
Принять
Принятие
##ируемой
ФИНУПРАВЛЕНИЕ
вопросов
ГАРАНТИИ
ГАРАНТИЮ
Екатерина
Кировск
Кировского
существенными
##оприобрет
##РИТОР
##try
предложившего
некоммерческой
некоммерческие
684
Балкар
занные
повреждений
смене
типовой
типовая
ПРИМЕН
собственными
расположенной
общеобразовательного
4070281063
ФЕДЕРАЛЬНОЙ
КККОД
Курск
Курчат
ОДУ
Павел
УПРАВ
сельскох
##2020001
##2027810
предлагаемого
##0110000244
переговоры
доставка
##67160
##порной
кабеля
автоматизации
поручениями
ПОДРЯДЧИКОМ
ГКУС
ГКУКО
Данная
баннеров
охлажд
##ing
налоговый
налоговыми
##ализации
временем
КОМСОМОЛЬСКАЯ
Александр
АВТОНОМНОМУ
47241
оставляет
оставшимся
требо
требует
##ённое
##ёнка
Законод
##000451751
Краевая
регулированию
регулирующим
несоответствия
несоответствий
дорожек
профессиональный
одноэтапного
Бенефициару
ХАРАКТЕР
ХАКАСИЯ
значении
##единение
##010005100
разрешению
Комитета
покрытий
Безотзывной
ТУЛА
ТУЛЫ
членами
##ИВО
##ТУРЫ
ЗАПОЛН
БАНКОВСКУ
удостоверения
удостовериться
Курганская
Николаевич
ФКУЗ
сеть
фиксированной
фиксируется
фиксирующего
налогам
##невный
качест
2014г
исправление
АДМИНИСТРАЦИИ
АДМИНИСТРАТИВ
Ивановские
Бюджетного
Водопровод
Горде
Горох
Удомля
долей
пуско
утрачивает
№5230
обосновыва
##02007337
Иркутскавтодор
Восемнадцать
Тагиле
генерирующая
##учаева
01312000010220098
дополнен
регистрационного
Татарского
выдавшего
топливо
Пятьсот
линей
объединение
обращению
обращаться
отклонение
отклонении
0127200000222005
понимаются
зарегистрированного
зарегистрированному
зарегистрировалось
Посад
пап
находящейся
Прикладывается
03731001
предпринимателями
№01312000010220098
КРАСНОЗНА
профессионально
8304
Сибирь
Тепло
##иляции
##вшей
##620000000244
##автобаза
наиболь
неисправного
реконструкция
упаковки
Приморского
присваивает
строящемся
Алексеев
ОЗНАКОМ
биологических
вешал
велоэрг
деклара
состоянии
состояние
состоянию
языке
##7087027
##ТИДЕМ
обеих
выражения
представленная
региональной
регионального
Сургутская
Атомфлот
ДЕТСКАЯ
МБУДО
НОГИНСКИЙ
Одна
добровольном
темно
##КПЦ
отгрузка
отгрузочной
подключа
прочих
прочерк
Отсутствует
Отсутствуют
Представитель
Представленным
Представители
Комиссией
Особые
метода
методов
Сергиево
ВОЛГОГРАДАВТ
таможенные
Грузоот
Карла
Карина
Юрьевна
земля
модификации
означает
секционные
##0442
населенного
выступающих
05902000010
Анатолия
перевозки
оснащению
некачественно
2455
245501001
Зеленоград
Пушкин
влияет
##уральск
стоматологии
стоматологических
стоматологическая
реализация
##ирующий
##ирующей
преимущества
преимуществах
спецификацией
контактная
критериями
40102810445370000021
предусматривается
конкретное
Октябрьская
экземпляр
0710002
3462
БУР
ВЛЗ
Федер
Федяева
аграрный
##ИМСЯ
стационарной
избрано
разгрузку
разгрузка
разгрузочные
01511
01504200
##01001000400
Орджон
УЧАСТНИКЕ
ГКБСМП
спортивной
Коломны
Коломяжское
Медицинские
надзор
дизельное
5257087027
5087746
Девяносто
ПСПБГМУ
Система
информат
информируется
машиност
офисные
полная
химии
##17401
##НАУКИ
объявленного
зачислением
допущен
допущенные
##631101001000400
Разработал
Уполномоченное
многофункциональный
Грузополучатель
созданное
Ульяновск
Ульяновской
Ульяновская
6284
int
Гагинского
ИВОЛГА
Клинический
МЗЦД
ПРАВОВОЙ
ТЕРРИТОР
академии
кресла
кресло
##ываемыми
##2118
##90235
обременен
обработке
Образцы
выгодоприобрет
кабинета
05352027810
поступившую
инновационных
принадлежит
Красный
передаваемых
минимальной
30101810907020000
метрологии
сервисном
санитарных
конструктивных
позволяющего
позволяющими
Графика
инструменты
Байкаль
ДЗО
Дубнинская
Искра
КТЭЦ
Лесозавод
Семьдесят
Троицкий
Троицка
внебюджет
дренаж
литера
словами
торшер
##ИЧЕСКИЙ
##ИЧЕСКИЕ
проклад
проезд
приобретаемого
резин
рекоменду
##0014336
05912202450
05193007380
##ЕЛЬСК
комбинат
Петровский
единичных
неполучения
присоединении
стандартами
сельсовета
НЦМД
Викторовича
мотивированного
кадастровых
стационарное
Дмитрий
Дмитриев
препятствует
Архангельской
Богот
Включен
КВФО
СТРАНЫ
Талицкого
Учредительный
гаран
локальным
памят
##техника
предпоч
различных
послужившие
##035503
Неисправный
##11010010003
недостоверные
недостоверная
почту
##18136376
0323264364754000
30101810200000000
прослеживаемых
учебный
автоматизированных
Приказом
расторгнутым
заинтересованному
рентгеновской
соразмерного
20014
20014845300
526001001
77149
771401001
Ачинская
Баумана
Борисов
Всеволож
ЛИУ
Тверской
Чайка
лишает
сборам
##ИЛИТА
##3052220
##ОЙСТВО
обновления
обновлению
закупаемым
изложены
известно
##220620
##0008000
0539305
оконные
Предоставляется
Предоставлением
##теплосеть
21586У
Новокуйбы
прикрепленном
двигателя
двигателей
взимания
взаиморасчет
Первич
Корсчет
Методика
выражено
автотранспортных
легкового
мониторинга
##ulter
Псковской
СТРАХОВОЙ
СТРАХОВОЕ
нотариально
нотариуса
00000002
Герлинский
Демен
ОРТ
Панина
Парк
ПЕРИНА
Толстого
УКЭП
говора
оферты
оздоровления
слойности
турбины
##40105
##шерства
##ectr
##epcov
закрытых
неоднознач
##ардино
##02615
подведение
подведены
случайного
опасных
опасности
##продуктов
109544
одобрение
аварийных
20396002580
05093052220
свидетельствующих
127051
конверте
конвертов
актуальными
эксплуатационное
2228607005
##24026335
Основания
##3003306
40102810745370000041
Нижегородская
расположенном
20825220620
благоустройству
паспортов
добавочные
игровых
туалет
туалета
эндоскопии
вакуумного
чрезвычайных
эвакуацией
Коммунистическая
64712000
76192
Coulter
ВНЕС
Воскресенская
Крут
КОРПОРАЦИЯ
Свир
Светл
Соколова
Четыреста
Шмидт
катетеров
крупного
лестнич
новую
совершение
таблице
улично
хлорид
черный
##ag74
найд
найма
##сянников
отзывов
подлинности
реактивов
##нецка
##2202870
Набережная
выплату
Подробный
016902004
имущественного
имущественные
##00010822000
РОСМОРПОРТ
РОСМОРРЕЧФЛОТ
##ОЛОГИЧЕСКИЙ
231501001
##торовск
03232643897010000
Минимальная
781301001
78130474
совокупном
факсимильной
архив
инфекционная
канализационных
предусматривающее
пересчит
пересчитывается
компьютеру
энергоблока
энергоблоков
применимым
урегулированных
Степановна
2105441000450442
аттестат
свежих
ЛИПЕЦК
ЛИПЕЦКОЙ
03252643000000071
027601001
0278176470
4742
986068
WDB
АРХАНГ
АЗС
Григор
Гурьянов
Гурылева
Ерм
Ефимова
Канзаф
Лапшин
Максимальный
МЕРЫ
МАРИЙ
Порядковый
РГППУ
СНРГ
Уведомления
благодарственных
встреч
вентиляции
генератор
догазификации
двери
желанию
зимнему
пластик
сотруд
сложных
сполнения
##уктологии
##800002000056
##лийский
##БРНАУКИ
неудовлетвор
поддельная
приостановлена
Россельхозцентр
Направление
выпуска
20496Ъ
05483D
Рекоменду
##060119
коммутатор
коммуникаций
##5100003500
ИЗМЕНЕНИЙ
##7320000982201
##4831000451751
№0127200000222005
##090033
03232643275100003500
Минусинский
Володина
222631570165063
ТЕХНИК
03234643607300005800
накопителя
Сублицензиат
ГАЗЭКС
20746Ю139
828527
Аксайского
05905090033
Спасский
Константина
Автоматизация
инвентаризация
Богданова
Революции
0062208
воздушного
Новокузнецка
Первомайская
Вожегодскому
Территориальная
Котировочная
бесплатно
Отрадненский
БЛАГОУСТРОЙСТВО
ДМИТРОВСКОЕ
гинекологии
саморегулируемой
субподряда
Краснотурьинск
2226345004166634501001000
микрорайон
ультразвуковой
326635
30054035503
5753003306
dss3
АНТИДЕМ
Велик
Докучаева
ДирФПД
Доверенность
ДУБНЫ
Затраты
Заринск
Звере
Итоговый
Ибрагимова
Катав
Кредитор
Кабардино
Льва
НЕНЕЦКОГО
Овсянников
Пенза
Сидоров
Салехар
Тоболь
Тайшет
Тулэнерго
ЮРИДИЧЕСКИЕ
адапт
аренде
верх
лимитов
магазина
министерство
октября
педаго
рейсов
сантехн
ткани
ходом
целесообразность
чистовой
##ИСТИКИ
##БИЛЬНОГО
##F36748
##ESN
##ометра
подсолнеч
подобных
застройки
служеб
репутация
Промышленная
##начают
прошедший
Например
капусты
выписки
Строительно
20516X207
20756Э03
Избиратель
04752202870
046577674
произойдет
правонарушениях
Неотъемлемыми
уплачиваемого
упущенная
Предложению
обслуживающего
170166908
21474836
222712500
032326434678
ОГБУСО
##етырнадцать
претендентами
22263350024026335
##5009631101001000400
770943002
источников
40102810445370000059
4060181020000
03234643507010005100
водонапорной
наименьшее
защищенных
балансовой
40302810800002000056
ГАГАРИНА
Большеглушицкая
КРАСНОДАРСКОМУ
82800000000000000510
обжалуются
подключении
позволят
4070281050024
Регистрационный
ЛР007120007
##лотрасса
светофорных
223744603
20726Х44630
222633005180863300100100
Толмачевского
пассажирских
Кострома
Урюпинская
кладбища
механизмов
разрабатываемыми
22263760218136376
ВЫПОЛНЕНИЕ
ассортименте
Мончегорску
Михайлов
КОМПЛЕКСНЫЙ
конфиденциальность
Ванаварский
Верещагинского
ВКЛЮЧАЕМЫХ
Малахит
ОСТАВШИМСЯ
Письмо
Пестравский
ЯВЛЯТЬСЯ
нанесенный
ПРЕЗИДЕНТЕ
периметральной
0631003
1ЗАКУПОЧ
2114831000451751
575301001
946800
Beckm
DxH800
UniC
dgp1
entry
fcsrb
garant
rkb3
slepcov
uzag74
Афип
Агентство
Ботанический
ВОРОНЕЖ
Галеева
Грозный
Дзержинского
Дорога
Дарья
Декларация
ЗКТЭ
Значимость
Ижевск
Игн
Изучив
Игоря
Калевала
Кавказское
Можайская
МАЯК
МОЛОДЕЖ
Мотовилихинского
МИНФИН
МТУСИ
МИНОБРНАУКИ
Мартиросян
Норма
Нальчик
НАРОДНОГО
НЛРВПиС
Очур
ОФИС
Окуловского
Оригинал
Паште
ПЛАТЕЖ
Рамеш
Румян
РАСТОР
РНИМУ
Савельево
Слепцов
Сопоставление
Спецавтобаза
Сосновый
Судебного
Тарасов
Тырныауз
ФРЯЗИНО
ФАНЦ
ЦМСЧ
Энгельсская
Эдуарда
Юмаг
Ялуторовск
акушерства
аэропорта
бутилирован
башни
бесперебойного
битумного
визу
вяжущего
венерологический
древес
дивизион
жилья
звон
кожно
клап
крите
кругл
майор
мясо
очевидно
празднич
рогатого
сустава
скид
синий
скрытые
факульт
флеш
фруктов
широк
шлифованный
шерстя
школы
##А90760
##51200000622005
##59810
##НМЦК
##СББЖ
##икидзевского
предохран
прояв
неделимый
неиспольз
неисключительных
отодвигается
Обращаем
издержки
реорганизации
репродуктологии
447010
выходе
вылетающих
00493391
полимерно
##елезнодорож
разнаряд
##43263160100101
03272643
206010170
20740А90760
05742201170
Изделия
040702615
042202603
0401737
011117401
017003983
019706900
011806101
переселения
ЗАКРЫТОГО
ПРЕСТАРЕЛЫХ
корректировочных
Отборочные
конгракта
Неустойка
Непредставление
Реабилитационный
142860
##050000002000
Кратово
ПРОИСХОЖДЕНИЯ
##119951
Забелин
малоэта
03224643760000009100
03224643600000005800
##73014340
ФОРМИРОВАНИЯ
Петропав
##653860701001
НАДЗОРА
помешать
потребовавшая
##241011901
03232643986600001600
03232643046241011901
ОГЛАВЛЕНИЕ
2701078
Консультант
Преодоление
##870000000700
6503000456
##342000001220041
РАЗРАБОТАНО
2226311025009631101001000400
2226340005590634
222636400048863640100100
222631601943263160100101
40102810245370000058
электромеханический
7721632827
ВОЕНТЕЛЕКОМ
Электроэнергетический
##21200004722000
Специализированная
РЕАБИЛИТА
##ПИНГОВЫЕ
20086Х59810
03234643367010004200
Индивидуальный
водоотведения
САХАЛИНСКОЙ
1435024023
Балкарской
сельскохозяй
ХАРАКТЕРИСТИКИ
БАНКОВСКУЮ
АДМИНИСТРАТИВНО
КРАСНОЗНАМЕН
ОЗНАКОМЛЕН
велоэргометра
ВОЛГОГРАДАВТОДОР
Грузоотправ
015042002
Орджоникидзевского
5087746119951
машиностроительный
ТЕРРИТОРИАЛЬНОГО
выгодоприобретателями
30101810907020000615
03232643647540006100
21586У67160
ПЕРИНАТАЛЬНЫЙ
2228607005653860701001
03232643897010000900
7813047463
АРХАНГЕЛЬСК
Канзафаровский
20496Ъ86050
22263157016506311010010003
20746Ю13920
АНТИДЕМПИНГОВЫЕ
ДирФПДР
Салехард
педагогический
20516X20700
20756Э03600
22263350024026335010010022
40702810500240014336
222637602181363760100100
1ЗАКУПОЧНАЯ
Beckman
UniCel
fcsrb3
МОЛОДЕЖНЫЙ
222634000559063400100100
0028
075
065
0000001
0000006
000000
0223
0254
02100
1с
1м
1ш
137
1028
171
1ИЗ
1718
2Z
20000
20001
263
298
261
278
2129
20054
2РП
3х
310
345
343
303
363
398
324
347
369
397
3250
3476
4а
4В
4000
423
408
473
465
426
478
470
479
4КЛ
41003
563
598
5005
5200
539
549
520
587
580
570
610
643
663
611
691
695
627
666
687
6ТП
6300
62201
668
6700
680
688
630
690
6073
6452
6639
6152
6156
743
791
777
786
747
7ТП
755
796
7736
7039
7104
75201
801
802
810
844
851
821
818
820
869
860
850
855
830
838
867
8601
8254
8652
8342
905
904
927
941
930
938
92401001
A1
B4
DE
Et
Fal
GM
Gen
GAZ
HD
LA
MA
MS
NN
ON
Par
Pac
QN
RU
R16
RSD
SC
SP
Son
Sur
Vo
Wi
WSS
WESN
XI
XL
XII
ase
bi
bv
bu
cn
dep
ef
el
ec
gk
kn
kr
kom
kol
king
lot
mul
nur
oa
on
ot
om
re
st
sm
tor
vos
Ас
А4
Ап
А3
АВ
АФ
Аэ
АГ
АЧ
Аль
Ант
Але
АСП
АТА
АЛЬ
Аму
АМО
Алуш
АНАЛИ
БР
Бре
Бер
Бий
Бая
Боя
БЕН
Бут
Беле
БКТ
БСК
Биб
Бло
Бах
БГО
Бала
Бур
Балт
Бесс
Бетон
Бульвар
База
Баран
Беляева
В1
Ве
ВА
ВК
Вени
Вост
Вед
Вар
Вин
Вих
ВОД
ВРГ
ВГС
ВЗУ
ВГП
Га
ГЕ
ГР
ГЦ
Гре
Гак
Гот
Гост
Год
Горм
Гале
ГПП
ГОЧ
ГТС
ГСУСО
Гарм
Де
ДЭ
Дав
Достав
ДЕЛ
День
ДРУГ
ДГС
Дорож
ДГП
Длина
ЕМ
Елены
Егор
ЕВР
ЖКС
Жданов
Железнодорож
ЗИ
Злат
Зел
ЗИН
ЗИП
Им
Информ
ИТО
ИМУ
Ки
Кы
КР
КН
Куп
Коб
Куд
КАН
Кал
КГО
Клав
Кала
Кова
Кух
Котов
Кола
Корпора
Канал
Коэффици
КУЗ
Кроме
КМП
Каменск
Квад
Ла
Ле
Луб
Лев
Луч
Лаб
ЛУК
Лип
Лыт
ЛИЦ
Литр
ЛЭП
Ма
Мп
МИ
МС
МБ
Мат
Мер
Мой
Мая
Миз
М12
МГО
М19
МТР
МБУЗ
М100
Малы
МОК
МКС
МКП
МЛР
Мерку
Мыс
МЧС
Мулым
Нк
НУ
НИ
Ног
НИК
НАСТ
НАР
Новое
НГУ
НПЦ
НОКБ
НТК
Ноябрь
Оне
ОИК
Остр
ОФОРМ
Оста
ОАРИ
ОТВЕТ
Онеж
Ошиб
ОУХ
ОНМЦК
ПД
Пор
Пог
Пож
Пого
Панк
Пут
ПОВ
Пещ
Плата
Площад
ПАР
ПЕЧ
Пота
Паров
Права
Плюс
ПЫТЬ
ПКП
Перед
ПТК
Пуля
ПАЛА
ПМК
РВ
Ров
Рим
Роск
РТП
РГС
Равиль
РПЦ
РОКБ
РГБ
РИФ
РТК
Райх
Слу
Син
Сформ
Суд
САН
Семы
Сали
Сбор
САО
СЛО
Селю
Суще
Страж
Спор
СТОМ
Свид
Сув
Солнеч
Смотрите
ТН
ТС
ТБ
ТЮ
Таз
ТОВ
Только
ТОЛ
Трансп
Твор
Туж
Тым
Топол
ТСА
Тыва
ТМЦ
ТЭК
Ун
УС
УФ
Уш
Усп
Уса
Увар
УИР
Усть
Убыт
Учили
УКАЗ
УГМУ
УФА
ФК
ФС
ФБ
Фан
Фом
Фир
ФОН
ФЛО
ФПИ
ФНЦ
ФПЦ
ХЭ
Хол
Хва
Хами
Хру
Хас
Хозя
Хозяй
Харь
ХЭУ
ЦД
ЦСП
ЦЭС
ЦВД
ЦСО
ЦСМ
Че
ЧП
ЧГ
Чуб
ЧЕР
Черн
Чеп
Четырнадцать
Шп
Шол
Шим
Штраф
Шад
Швед
Шел
Шилова
Шерст
Шприц
ЩП
Щата
ЭС
Эль
Эко
ЭТА
ЭКО
Энерг
ЭОП
ЭГКБ
ЭНЕР
ЭВМ
ЭЗП
Юн
Юность
Юби
ЯХ
Яль
Янт
ае
ара
аре
асп
аль
ауд
ата
ация
бль
бок
бед
бин
бук
бования
биб
бел
барь
базы
бараб
билет
всп
вред
вся
вок
вки
влож
впос
введ
веду
внов
влад
вари
внеоб
врио
вложений
вруч
вторая
ги
гос
глю
гру
готов
дл
дель
дей
досуд
дукции
дров
диск
дача
ер
ег
ез
ею
ера
есп
ены
едов
етных
жир
зм
зк
зз
зая
зло
ик
иона
иче
идент
иком
иям
кост
кой
куб
кран
кры
квад
книж
лид
луч
лечения
листа
м2
м3
мл
мя
мост
муж
магнит
мость
мышь
нт
нения
нии
нтра
нных
нит
ними
ниж
нети
ный
нтий
ниям
навод
натрия
оц
ока
ому
олн
ово
плен
пист
публич
пнев
прай
ри
рз
реч
рос
рис
ржд
роз
руч
реду
рул
сго
суп
сказ
сосуд
ска
спаль
слад
слова
съезда
соков
тд
тю
таз
теч
торм
тороны
таб
тару
танный
татьи
точки
ухода
фи
фа
фит
фас
фасад
флота
фунт
хол
хле
хранение
ца
цы
цилин
чие
честь
чивать
чьей
шины
шприц
ьного
эпр
энтера
яр
яет
ящик
ядер
ячей
яйца
№№
№10
№05
№21
№102
№24
№99
№32
№50
№96
##иП
##иР
##иот
##ирав
##илов
##ичен
##иатр
##иПИ
##игод
##иату
##нс
##нение
##нской
##новой
##ничеств
##нанг
##ндина
##аI
##алуж
##аемые
##аполн
##аорт
##аукцион
##св
##сос
##сации
##сион
##сез
##сети
##сбе
##санова
##серв
##оав
##оход
##оакт
##оологический
##оимки
##вт
##вов
##вок
##вера
##вский
##вская
##виже
##воров
##виг
##вший
##вентар
##мон
##мор
##мос
##мский
##муниципаль
##мента
##монт
##меж
##мана
##масс
##мцк
##манова
##уе
##усти
##ута
##уведом
##улок
##урат
##уголь
##цИ
##цом
##цем
##цами
##цеп
##цесс
##цеф
##церна
##циметр
##ын
##ыдов
##ырь
##ышева
##хим
##хова
##хирург
##045
##091
##04500
##0910000
##7000
##700000000
##798
##721
##799
##70000000
##70000244
##7950
##2001
##210
##2001001
##2013
##21051244
##20011051244
##2108
##2633001001001
##845
##865
##828
##835
##826
##809
##80004
##8517
##8460
##145
##123
##163
##1000000
##133
##146
##1001001
##142
##1736
##1732
##40001
##405
##473
##428
##40100100
##4718
##40100101
##47746
##4210001
##42701000
##4297
##40110000244
##6Э
##6001
##6643
##612
##621
##604
##60003
##60006
##6083
##кра
##кан
##кия
##код
##кер
##кая
##коз
##ключ
##канов
##кари
##клам
##пом
##пля
##пар
##пун
##повых
##паш
##плекс
##пенко
##пассаж
##пресс
##патория
##ея
##ереб
##еются
##HIN
##ab
##am
##АП
##АХ
##А918
##КБ
##КЦИЯ
##КОВАНИЯ
##Калуж
##У9
##УМ
##УШ
##У03
##У39
##У710
##УСМОТР
##ПУ
##Ие
##ИСТРА
##ИТЕЛЯ
##ИСКА
##ИЖЕНИЯ
##5B
##508
##563
##573
##524
##50000244
##5020000
##50011051244
##йте
##йтех
##AE
##3P
##307
##311
##3000000
##327
##3100
##3220001
##380
##3013
##301800
##3410000
##3200008422002980
##948
##949
##922001
##90011051244
##9110000
##9250
##9750
##92906
##9371
##тик
##тию
##тское
##тоном
##тотранс
##лар
##лование
##лоп
##ланов
##лательщик
##лительной
##чу
##чно
##чит
##чук
##ького
##ьшая
##яты
##ящих
##риз
##рской
##руб
##рования
##ренного
##ровод
##ровым
##риков
##рюк
##im
##ih
##iya
##щи
##щная
##щими
##щина
##Т02
##ТИР
##ТСКОЙ
##ТОВЛЕН
##ТОВСКОЙ
##ВАН
##ВСКИЙ
##ЕЩ
##ЕТА
##ЕЕВ
##Е322
##РЮ
##РСКАЯ
##РУЗ
##РУЖ
##РОП
##РОЛОГИЧЕСКИЙ
##РТСКОЙ
##ЖНО
##Ж98
##ЖЕНИЙ
##ЖИЛ
##ДД
##ДИНО
##ДУШ
##Нед
##Номер
##НИЕ
##НЕФ
##дон
##деч
##док
##дена
##дров
##драх
##дневный
##дцем
##жно
##жного
##жению
##жев
##жены
##жиг
##жино
##ги
##гг
##гот
##гарант
##гест
##ганская
##гуз
##глийский
##бный
##бная
##бал
##бова
##балин
##бленным
##бокс
##бвт
##бжению
##фь
##фав
##фим
##фенов
##фарм
##ОЙСТВА
##СОВ
##СОР
##ССА
##СиС
##ЛЖ
##ЛЛО
##ЛОВСК
##ЛТУ
##ХГ
##ХОН
##Х74
##Х69
##Х303
##зп
##зам
##злот
##зенского
##юс
##юзы
##юйм
##юганская
##БФ
##БОВ
##БИК
##БОД
##БПОУ
##Б0168
##ЫТА
##ЫВА
##ФТ
##ФЗ
##ФАР
##ФИИ
##ша
##шен
##шем
##шли
##шать
##шке
##шевича
##шников
##шкова
##шино
##шовская
##эа
##энерг
##ka
##kar
##kol
##sg
##su
##nc
##net
##vo
##Гид
##ГРЭС
##Г412
##ГИСТРА
##ГРУЗ
##ЯНСК
##ЙМАЗ
##ЗН
##ЗОВСКИЙ
##ЗЛОТ
##ЗИНА
##ЧИ
##ЧАТ
##CE
##CM
##CS
##CON
##ЭР
##Э139
##ЭНЕР
##ёл
##ёзд
##МЗ
##Мар
##МЕЩ
##МБОВ
##МЧАТ
##Ю904
##ЩИНО
##Щ835
##FF
##FP
##F0010
##F193
##fen
##D8
##D6
##DF
##D508
##wl
##oe
##od
##op
##ox
##rf
##gi
##tе
##ta
##mol
##mao
##ЦН
##Центр
##PR
##N95
##X01
##di
##de
##dr
##dor
##ux
##B6
##BS
##ER
##ECON
##com
##hi
##hmao
##LIN
##TY
##jkh
##OIT
##ШКО
##Ш999
##ШАХ
##GS
##yag
##V92
##RE
##UMM
##U653
##енств
##енос
##енному
##енностью
##сталева
##енин
##ениров
##рам
##рада
##ратов
##ражения
##овки
##овской
##овское
##овному
##речен
##спец
##способ
##оны
##онча
##онской
##онное
##онек
##онсульт
##нос
##ноде
##анчик
##анность
##аных
##анитар
##ствия
##ствует
##етиков
обы
общие
облиц
обучения
##кту
##ктора
##ктическая
##ктуются
##009
##0051
##0066
##0086
##00220001
##00220003
##олиз
##олай
##оловой
##олета
##оленко
##атки
##атей
##атном
##атального
##атической
##атические
##ором
##ории
##орной
##орного
##орным
##орская
##орота
##ориг
##орость
##омя
##омог
##омора
##омплект
##отое
##отив
##отранзит
##откий
##автом
##авшее
##аваемой
##редаваемой
##икор
##азово
##азательством
зака
##ечением
##ечания
##гое
##годов
##остат
##остью
нач
наб
набор
напит
наложения
нагрузки
нагрев
##траора
##транс
##чаи
##чается
##чалов
обеспечен
##скй
##скос
##сконсульт
##сказово
##имом
##имого
##имое
##имект
##имыми
##окум
##окова
##одейств
##одействие
##одёж
##ельного
##ельные
##ельское
исполнить
##огрев
предуп
предло
предвид
преднам
предотврат
предельные
##ляемого
##лятора
##еры
##ерно
##ерий
##ерный
##еренного
##ерова
##ерцы
##нтов
##нтеров
##ийно
##ийных
##ийско
##итен
##итного
##итные
##итина
##итров
пролет
##упке
##управ
##употреб
##уприц
##ованности
##осмос
##осанитар
неиз
непе
неох
негаз
нераб
нефте
неориг
##лея
##лево
##кие
##емеся
событ
##лие
##лиот
##ливо
##орам
##ательной
##ательным
##ательными
##едж
##едицион
##едоступ
##едтехника
##чика
##чиков
отли
##иевых
##ислок
##исимой
##исмана
##ребнов
поиска
##лубленным
обязател
обязуе
##ейск
##ейкоп
##ентный
##енторг
##ацевт
обязательстве
##амское
##аминов
##амерный
##арин
##арта
##арион
##арную
##аркой
##арска
##арма
##аркин
##000010
##000043
##000007
##000004
##0000100
##0000323
##0000051
##0000022200
##0000322
##00007522000
##00003622000143
##00002922000163
предоставленные
##онахождения
##лютина
участн
участков
Обще
Обжа
котир
котлов
котёл
сте
студ
стих
стали
стаб
стел
стального
стати
стника
столов
стальных
стникам
станка
столовой
##0122
##0145
##0108
##0198
##0104
##01101
##0113
##0158
##0130
##0100000
##01190
##0150000
##нико
##никер
##никум
##альм
##альцова
##0295
##0278
##0236
##0269
##02300
##0222000
##0222001
##02407
##0260000
##0211220000
##024831
##02666
##02910244
##02060119
##инент
##инами
##инир
##инального
##ининская
##инирующ
##инвентар
##ленность
##ленков
##леновые
##щег
##рокольская
гарантийном
##енев
##изму
##изова
##изированная
услу
##ядерных
ценовой
##чек
##ческих
заключё
средне
среднее
##вано
##вала
пода
подать
подана
поданным
подача
подъезда
подрыва
подогрев
подвала
##усский
##усское
##усово
##мотров
изде
изуч
издание
средство
средством
средствам
##лаг
работосп
работникам
заг
заготов
залогов
загруз
независимого
##ждый
##обов
##облок
опе
оплачен
опоры
оптовой
##келев
прил
пристав
прибора
приходится
принтера
причит
приспособ
принтеров
контрактного
резу
результ
ревер
реали
реального
рефер
##ЕНО
##ЕНЬ
##ЕНСК
##ЕННЫЙ
заявить
##циация
##еляемых
##нево
440
4403
4463
4471
44523
443008
выз
вынес
вычис
вывод
выезд
вызв
выключ
##уна
##унов
##унзенского
##ственном
осуще
осмотров
Программ
##нал
20286
##пруж
документооб
##укомплект
денежн
##олжский
##227
##229
##2223
##2201001
##2220000
##22244
##2269
##2231
##2288
##2292
##222000
##2220002
##22031
##227010003
##2222000054
##22732
##истке
пропуск
##ительность
Над
Набор
Налог
Науголь
##равленко
##равличе
##опотреб
##ополож
Российского
Российские
##тад
начально
008
005
009
0052
00718
005100
00руб
##дебная
размести
заключаемому
заключаемом
составит
составленным
договоренности
формул
формировании
20226Щ
проведена
##иха
поставляется
поставляет
поставил
внесенными
внесенная
##ловой
##ивных
##ивная
##ивности
##ицию
1077
1041
1042
1053
10КЛ
10655
10ЧАСТЬ
##ностям
товарную
извещен
извещает
одрядчик
одну
оданного
полов
полной
полный
полут
полиэ
полуприц
##ОВСКАЯ
##ОВЦА
##ОВЫЙ
##ичест
##чёта
##еста
расхождения
##00145
##00107
##001100
##001244
##001205
##001080
##001271
##001030
##001113
системой
системный
##жаются
##жащей
##СТОЧ
##капит
##АНТАМ
##еева
##ОНКЦ
##ольный
преступ
преставления
государственные
осуществлен
осуществляют
##очий
##очном
##очих
##очка
##очную
##очкина
##ающая
##1095
##1046
##1040
##10690
##1070100100
20103
20186Х
Старт
Стреж
Строкольская
##451
##4510
##4501001
##450001
##4520
##4522000
##4579
##4530002
##4592906
автоф
ависимой
органу
Подать
Подвед
Подгор
Поддерж
Подачей
Подольский
Подпруж
банковское
разгла
##4380
##4330000
##43301
##4390
##430004
##43661
##430009
##00033
##00068
##0004800
##0003901
##0005800
##ителях
услови
455
4516
4520
4540
4538
450006
455000
45448
0371
0361
0339
0341
0362
03351
03903
03012
03513000
03283001
03701000001
0340200003322010723
0335200009922000024
03671000103
0332300038122000109
0300145
аукционах
определяемые
определяться
##реждению
2048
2059
20606
20386
##жественными
учреждении
##зуемые
запросом
05643
0563
05037
05323
05023
05003
05014
05174
05661
05007
051102
053101
0545300
0534300
05242
05731
0543301
##442
##4411
##44220000
##4464
##44220001
##4401500
##4422000091
##4404500
воздерж
возражения
подписа
подписавшее
##ировано
доске
доукомплект
##374
##3702
##3799
##3793
##37222
##3710001
##3722000069
##37370
##37528
##370005800
##льтров
Изм
##ЕРСКОЙ
##алог
##алита
##албанк
##алога
##алкоммун
объекты
##ОСОБ
##ружественными
законодательными
0425
0427
04716
049805
04701000
042908
04951
0422028
04910
040507
##ченной
0115
01101
01300
0157
01323
01951
019020000032200
0173100005722000028
01492000023220048
0144100008022000051
0139300018722000048
124
123
129
1215
120260000
перем
переимен
переоснащ
переулок
суммарной
пострад
##лейной
ЗАГРУЗ
ПРОС
1173
1199
1168
112101
11185
112101001
котировочная
##0286
##02800
тома
томам
##ДАКЦИЯ
процентам
процентном
##643001
##6430001
2013№
163
1608
1658
1656
##водится
##0307
##0318
##0309
##0315
##0320
##0360
##0388
##03002
##03122
##03000001220000
##03J41980
##03200008422002980
##034878
960
962
##чишников
корруп
коррект
короба
короткий
датах
##ОРНЫМ
ДООП
ДОМС
ДОШКО
Отмет
УФКпо
##ехнадзора
##ехникум
конку
конической
консерв
авансирование
авансировании
Договоров
307
304
306
##личина
##илы
##иление
##илки
##илетия
аукционного
правила
Неком
Непт
Нефте
Неуведом
уплата
уплачен
уплаченной
##2302
##2323
##2319
##2317
##230010000244
##2301001000
##23190100100
окна
##рыбвт
частное
штрафы
штрафной
40101810
допостав
допусти
##иборы
##ставлено
производств
производственного
производимой
производиться
производилось
казначейс
Режим
##оски
проектов
проектам
проекторов
основаны
131
1320
1385
13642
13зп
##0100103
##0100106
изменена
измененной
Полу
Поле
Полюс
1412
1478
1480
1492
14729
141160
140130
годах
сопрово
##метрам
##устимо
##устимые
сопровождается
##0606
##0620000
##0635
##062200
##06037
##06220002
##0622005
##06220003
##060000000244
##06652
##06220021
##0622000056
##06У03
##060000100
##128
##1243
##1263
##12701
##1270
##120002
##120145
##курдаев
положении
##ТАЛЛО
Гаранту
##ационные
##ационная
##ационными
перечислен
перечисляется
перечислено
применение
применена
городок
городское
городских
одинарную
##сногорск
##ада
##КАРСКАЯ
путе
##258
##2511
##2517
##2522005
##25160
158
151
155
153
15000
1513
1569
1558
15212
расчетных
расчетах
ПОДА
ПОМЕЩ
позд
позаполн
позицию
950
953
95580
##08000
##0871
##08007
##080360
##тиленовые
##071
##0700
##0701
##0764
##0715
##0702810
##0722000028
##07870
подтверждение
подтвержденного
подтверждаются
экскав
03226643
команд
комнат
Москалева
##ковской
##00011
##000161
##000133
##000154
##00018022000051
##000170220001
##054
##056
##0508
##0563
##0551
##0575
##05005
##0599
##0550
##050002
##05220003
##05606
##0522000060
кода
22с
227
228
2200
2209
2260
2279
220401001
221648
221245
22Т02
представителем
представленным
обязанным
##6312
##6307
##63220001
##63900
##6310000
##634000
##63027
##631201001
##6360100100
##63Э139
##63000043
372
376
375
379
ИНН77
ИНН5258
##ряс
##ряш
соглашение
участниках
##НИИВ
Допустимые
индекс
инсу
интраора
2571
##ЛЬТУРЫ
продлен
продаж
продукт
ноутб
##4643220000003200
отделяемых
СОПО
СОСТОЯ
##гализации
приему
приемная
приемлем
КПП77
измени
##екс
##екать
РОСАВ
РОСНЕФ
могли
ЗАКУПКУ
неисполнении
Гарантийного
##айм
##айский
##асского
##ижении
Краевой
Крайтех
##7171
##71000001
##7112244
240
246
2466
2460
24130
перин
перил
периф
перенос
##otsk
экспедицион
далее−
##БУРГ
##БУЕТСЯ
деф
дела
дециметр
182
181
184
185
1803
1873
1800000
180158
Дагест
предпринимательств
предпринимателей
##119
##11B
##11000
##11000000
##1122001
##1130000
##1150000
##11305
##1110100100
##111095
##00000061
##0000006400
##0000002701
##0000002900
0000000000
##ОВОГО
##ОВОЗА
Защита
недод
недоработ
недвиж
недоимки
недружественными
связано
ОТС
##ургона
площадью
площадкой
##ОЛЕНСК
170
1798
17533
0322464318
0322464315
0322464397
0322464368
0322464330000
03224643610000005900
03224643360000004200
032246436600000063
03224643050000002000
032246431000000
197
192
198
194
199
1943
1913
19755
19737
19722
##тел
##роенных
##роэлектр
##рохирург
##роМар
##околамское
рабочим
рабочую
233
2312
23005
2304
2348
2329
2353
23082
2308007
##рилов
##рисконсульт
##510010000244
##513000001
##51F9
##5147746
##5163027
Даты
направит
направил
направленного
направивш
направленном
##актор
райСББЖ
218
2165
21300
неустойка
ПРОЕКТНАЯ
ПРОЕКТНЫЕ
087
0848
0830000
087340000
086020000082200
08525000001
08912000006220072
0815500000522008
0848300044522000671
0835200001022000037
##АРОВ
##915
##913
##91001001
##91700
##9150
##91422000
##9122000299
автобаза
##ОВАНИИ
##ОВАННЫХ
##ОВАНИе
##7536
##75037
##752000002
##7522000133
##75У710
##750000051
предметов
директоров
приложенный
##далась
##2000091
##2000078
##2000016
##2000050
##2000031
##2000014
##2000053
##200001800
##200002922000163
##200002222000054
##200000622005
Идентификационныйкод
крат
краев
##22000022
##22000010
##22000043
##22000005
##22000004
##22000026
##22000078
##22000087
##22000068
##22000040
##22000042
##22000014
##22000079
##22000067
##22000094
##2200004722001
ОКРУЖ
##734
##733
##73000008
##732000
##73980
##73997
##73220005
##ЕТЬ
своим
314
316
312301001
##988
##981
##9821
##98600
##98035
##9822000048
##982633001001001
объемом
##охова
##аблок
предложениям
включающих
включающей
включающая
##214
##21001
##2131
##21011
##2160000
##219750
происхо
##61024831
эксплуатационного
эксплуатирующей
данными
данским
десят
десятых
##332
##3389
##3300100100
##33158
##33510001
Петра
##ированном
##ированную
сниженной
сниженная
##елки
##елению
полуавтом
получается
информационного
протоколов
22224
22227
222023
222073
2225258
2224824
##АЛЬНАЯ
измерительного
ЭЛЕКТРОС
##0050000244
##005900
##00530001
##005650
##005845
##0443
##0407
##0495
##0429
##0416
##04101
##0470
##0422000101
##6586
##65220001
##6522001
##652101
##65220007
##6500002922000163
пятидесяти
конкурентных
конкурентная
рантий
ранние
##новского
##десятилетия
предоставляемый
оформлении
оформленного
оформляются
оформленное
оформленный
оформленную
начисленная
финансами
##равоохранение
Выше
Выезд
Выписка
Ново
Новош
Новоля
Новоче
видом
видах
специальным
ИЗВЕЩЕНИЕО
НАЛОГ
##СТВЕННОГО
##СТВЕННЫЕ
Усиление
заключению
##ившего
##лонной
открытых
##итария
##това
##товокз
##ЕЧЕНЬ
платежными
##485
##4825
##48635001001
##95001
##956170100100
образов
образцы
##енеративных
032301001
032303122
расторжение
Сахья
Сахмин
##2002800
МУДО
МУСОР
стоимостные
стоимостная
стоимостью
Подписан
Документацией
ФГКУ
##ТЕЛЬНЫЙ
##776
##7743
##7723
##7709
##7740
##77618
##772301001
267
2620
2660
##2822000
##2840
##2830000
##2830003
##28905
##286000019
##280236
##ЛОБОД
##ЛОЭНЕР
##ладка
освобожден
больше
##10220003
##10243661
##1025163027
рассрочки
рассматривать
рассмотреть
окружная
использовать
использованию
использовании
использоваться
использованные
069
0666
06017
06761
0621011
##АВТОВ
##АВЛОВСК
пескос
этапах
##варочных
##струкцию
Электронные
валов
потребностям
##2400
##2468
##2443001
##240204
##24258
##350
##355
##35001
##3510
##3595
##3520001
##3530001
##3522000143
##350011712244
##35124
##354008
##3563180100100
##018105
##018307
##220027
##220029
##2200206
##2200205
##22002247
##22002511
получении
получению
получателей
##2709
##27220001
##27037
##27125
##270011712244
соблюдении
Главами
##199
##19220001
##1922001
##19220003
##1930001
##193000380220001
##193563180100100
##ИРУ
##ИРСКИЙ
##фективности
передается
передовер
передача
переданные
переданной
передаточный
переданную
передвиг
РАСУ
##ортные
2238
22363
2232906
22340105
2232319
Единого
ИСПЫТА
##266
##26X
##260000
##2623
##26202
##2622000069
##260220001
##260001800
##262013
##26Х303
##2602407
КОД
сторону
подлежащая
##бытнанг
юридическому
##180
##18701
##180100101
##1830001
##1822000053
Начальной
возможных
возможные
Ограниченной
##467
##4665
##4620001
##46220003
##46063
##46902
##46771
##462000009
##46У39
##46Х74
№0102
№0164
№01603
№01323
№01623
№0173100005722000028
№01492000023220048
№0144100008022000051
№0139300018722000048
№01342000001220041
№0121200004722000
№0103200008422002980
подписании
подписанной
тележек
Почёта
##МИНСКИЙ
трехдневный
фактов
282
288
2822
2851
28103
ПРЕДУСМОТР
итоговой
пенсион
##668
##6623
##6612
##662000
##6622000039
##66970
прилагаемых
заключенном
причинение
причинах
компании
комиссию
##ипенко
##ипяти
Исполнительный
Электронныйаукцион
##отано
299
2910
290318
290508
государство
понужд
понедель
##ебном
региональный
регенеративных
42а
420
429
несоразмер
несоблюд
##агул
точек
##780
##783
##7811
##7864
##7858
##7822000013
##78715000
##ологическому
исх
##лендарный
Условием
##097
##093
##0911
##09200
##0999
##0930
##09013
##09418
##0932001
##090008000
##0922000067
календарный
##одеж
размещена
размещенных
имеется
имеющий
торгах
0323264341
0323264397
0323264368
03232643037
03232643376
03232643756
03232643718260008700
03232643047370001900
0323264342701000
ОГАУЗ
ОГБПОУ
##640
##6401001
##6407
##640100101
##64708
##64220
##6410243661
наружных
наружного
взят
возвратную
##293
##291244
##2970
##290011712244
##29001244
##292000053
##452520001
№031
№0339
№0341
№03463
№03513000
№03112
№03283001
№0340200003322010723
№0335200009922000024
№03671000103
№0332300038122000109
##оверфь
##линская
подпункта
подпункту
ГАУСО
##ильтра
##ильного
##енье
ТРЕБУЕТСЯ
272118
272201001
Кондинский
Концерна
Конаных
##390000
##3922000
##роват
##ровочном
Технической
##41220001
##41510
##4159
##4163900
##4135124
##комплект
##ременного
330
Заместителя
##МОБИЛЬНОГО
каждым
поставляемые
поставляемой
поставляемое
поручней
Финансовых
картоф
кардио
##питания
ТРЕБОВАНИе
следов
следствием
основной
основные
основном
районной
##167
##168
##1601001
##16244
##1688
##16V92
03222643220000003200
03222643920000
03222643630000006
03222643010000001700
03222643640000006100
032226436600000063
03222643800000000
0322264378000000
032226436900000065
03222643170000002800
03222643870000000700
0322264311000000
ОБЛАСТЬ
ОБЛАСТНОЕ
Комм
Команов
обязательс
обязательной
обязательными
управлением
содержащие
##868
##8627
##8693
##867220000
##496
##49120
##493000050220000
##49982633001001001
##4922002511
##157
##1571
##1575
##1526
##15220001
##15220002
##1570
##1593
##15220003
первая
первому
Осуществ
Осипенко
ответствии
ответственного
ответственный
40102810945370000031
Волос
Волоколамское
какого
техног
##36222
##360355
##ятителя
60А
термо
##1000211220000
##10100000000
##101573
##ТОГРА
##ТОМОБИЛЬНОГО
особенности
возможностью
##742
##74220003
##740018
##740389
301501001
Каша
Календарный
##ЧЕЙСТВА
##ержатель
периодического
Рассказово
жилом
жилые
уведомлении
##2448
##244268
##2440811
постановлению
уменьшить
оценку
##0003800
##00031922000418
последнему
местонахождение
местонахождения
местополож
##оровская
возвращена
Предусмотренные
##87220001
##872701
##13001
##13000006
##130004
##1302666
654
650201001
65916
доме
домов
домах
доминирующ
##470
##470601001
##4722000011
Новосибирска
Казанов
Типовой
Типовая
##693000
##6920000022200
##6922000080
признано
эквивалентную
3541
350107
2025г
##010010047
##010010079
##010010083001
Мосгор
Красноярская
капитале
капитальных
##45370000008
ДОГОВОРУ
ДОГОВОРОВ
##3400
##3410
##3420000
##34220003
##99220002
##990635
финансово
ТОП
вооружения
##1700
##1722244
##179150
##22000110
##22000108
##22000107
##22000111
##22000173
##22000121
##22000149
##22000120
##22000140
##22000142
##22000194
##22000181
Установление
Установлена
Установленные
Калининском
РАЗМЕР
ОГРН5147746
Начальника
Городов
Городские
Городищ
##ОЧНОГО
устранено
устраняет
0142300006622000024
0142300011622000057
0142100004722000020
029100
0295001
округляется
УЧАСТИЕМ
судоход
судоверфь
##ышев
##ышкин
##ЛАИРСКИЙ
общепр
общественного
общежит
32000
3237528
34750
784
785
7849120
современного
№0848
№087340000
№086020000082200
№08525000001
№08912000006220072
№0815500000522008
№0848300044522000671
№0835200001022000037
№087320000982201
№0851200000622005
проводимых
проводимом
##3004
##3000200
##300745
##300445
##3002746
##30046902
##2201630
##22013595
##образования
##001001001
##001001005
монтажной
Северный
Северского
Северомор
оригина
##9764
##97220002
##9722005
##97922000
##9722000007
##9722000026
первоначального
0103200008422002980
выявленного
выявится
выявляются
выявлены
2226320001
222631202
2226323001
РЕСПУБЛИКЕ
1008
1006
##585
##589
##5822000003
##581960
##500204
##50002910244
##50002800
##атории
окончательного
##6806
##6822000
##6894
##680220001
##6822000239
##680575
##6822000005
##22000708
##22000623
##22000602
##22000711
##22000613
##22000680220001
Орлова
электро
электрических
электрическим
электрические
электростан
электрификации
электроф
электроот
электроэнерг
##мматические
обусловлено
экономических
Калининграда
7705
7729
771202
77073
77271
772401001
770701001
772901001
774301001
77087
##рочку
претензия
претензию
СПФС
СПИД
СПОСОБ
СМОЛЕНСК
вторичном
##обедренного
3912
3904
3905606
##ostr
дополнительному
Центральному
Калининградский
Калининградское
Победителю
просрочку
вводу
##todor
заполнении
410012
Лиценз
Лицензиар
##ифид
##037200001800
##22001124
##22001126
##22001948
##22001470
разъяснении
отвечающим
438
434159
страну
страницы
##593
согласованного
согласованный
480
4800
4824
48418
482401001
482601001
4827037
482602407
добросовестности
коленного
##следование
##5207
##5211305
##ЛИФТ
##0000001500
Сахалинский
атомного
##ирается
помещениях
файлах
удержанию
удержанных
удержаны
удерживаются
милия
67н
672
670000
6746
предварительным
предварительной
362
3629001244
физическому
физическими
##890801001
##3101001
##3177
##3122000038
##3122000623
##300079
##3000635
##30004800
##3000448
##3000721
невозможно
##лица
##ледствии
исследования
показатель
Западного
244600
Автоном
Автовокз
Тюрь
##800200
##80020000244
##80091000001
##AGF0010
Запросы
zakupka
МПа
МПЦ
##КСМ
##3000075
##3000085
##30000062200
##3000005220003
##3000074220003
##рукты
Континент
МОСГА
МОСЛИФТ
СРЦН
##леток
##летряс
Применяется
Настоящим
инстант
Воронежская
Воронежтеплосеть
Генеральным
Генеральная
Перми
##881
##8822000024
##888739
##60060
##6006612
##НАЧЕЙСТВА
Новгородской
Новгородская
##22000206
##22000212
##22000207
##22000291
##22000204
##22000224
##22000231
##22000276
##22000256
##22000253
##22000272
##22000296
совместимости
№40702810
##423700
##4263300100100
##5522000013
##550400
##556000019
##5522000014
##ЕРАМ
381
384
3812
3863
389100
СТАН
##926360100100
##яжение
Кемеровская
1020300
1022401
10261024831
102740389
интерва
##газсети
программе
посредниками
КАБАР
КАМЧАТ
Таким
Такой
Также
истекать
функционально
##игнут
##701390000
##14014
##142604
##14193563180100100
##1422001126
##ающихся
строительные
Собян
винов
спор
спечение
споре
спорта
списка
привяз
490
4922
4942
4967
49331
##бино
статического
обнаружение
обнаружит
непредоставлении
Саратовский
РЕГИСТРА
РЕДАКЦИЯ
критерием
##3820
##3822000001
##3822000020
##38222000
##3822000142
##383000074220003
##ЛЯР
##регулир
конкурсах
СТОРОНАМИ
75000
753601001
754013
75701390000
рамочного
##уланов
##ульмон
##76202
##010ВР
Колоб
Колотов
Колпаш
Колотое
Количест
##ьевич
##ЩЕСТВОМ
##00211
##002090
##0024592906
комплекте
штатном
№0373
№03713
№03752
№0372200021322000001
№0372200275022000236
##00000822001470
044525823
044525187
Волгодон
2008
20086У
20075У710
скреп
склада
скваж
предусмотр
##роительных
03234643806
03234643047370001900
03234643957
03234643227010003
0323464378715000
0323464364708
03234643037200001800
40102810245370000015
Протоколом
Ирлица
Ставро
##ландцем
##МУРТСКОЙ
наступить
наступает
подразум
##ционной
##22005107
субподрядчика
субподрядчике
30101810700000000
квалифициру
03214643000000013000
03214643000000011800
03214643000000014801
03214643000000016200
03214643000000011900
03214643000000013200
Арена
Арзам
Арктическая
Баркар
##2000377
##2000828
##20009821
##200036222
##2000171
##2000120
##2000138
##2000111220000
##200013250244
##2000197220002
##200015822000003
##200013122000038
##ЕВРОЛОГИЧЕСКИЙ
назначить
Департа
водоза
метров
редостав
серии
серый
сердеч
серийно
тепло
##796
##7922000055
##79663
##01348
##013649
разработкой
##71873980
556
55663
550800
внутр
##шиха
##nomi
##2202269
Ответственностью
Открытие
Открытое
ограниченного
удовлетворить
квалификации
СПбНИИВ
транспортным
транспортировке
транспортировки
ПОСТАВЩИКОВ
14364
143401001
143402
1435211305
федеральным
##матических
##ТЕРСКИЙ
соисполнителя
соисполнителе
##00000173
##00000122013595
##00000122001124
корпорацИ
продлевает
Конкурсно
контакта
Ставропольское
Ставрополькоммун
грамматические
##5400
##5407
##542244
##5422000055
##горская
ответных
018730000
0187300014722001
018142
018327
016230000
01611000023
частичное
коммерческий
коммерческого
коммерческую
##7300301
полученной
стандарта
статуса
Алтайск
Алтайкапит
КГБ
КГКП
входящие
входящими
##000293
##000210220003
##000215220001
##ластырь
принятые
исчисляются
любых
бухгалтера
Должны
Рязанов
достижении
достигнут
задвиже
##общение
однораз
однократ
определенными
4010281064537000003
принимаются
принимают
Минздрав
ориентированными
теплового
тепловизион
московского
590401001
##90090235
##щуюся
Обязанность
пятница
##7160003901
ОТКРЫТИЕ
контрпуль
Внесения
Внесением
ГАРАНТАМ
Екимов
гражданам
существования
##7022000091
##70246063
##ell
##electr
подготовлены
улицах
некомплект
подрядные
индивидуальный
##200000122000111
Липецкий
Южноуральская
Аукционная
920401001
Алексеева
Маргар
Никит
Николай
Указанная
##релка
незав
незаблок
##225000005
##ируемого
противоав
противодейств
Крымгазсети
6318
6315
лотки
лотам
планов
плана
существенное
##РИП
предложившее
##45370000033
##010010132001
бумажн
бумажных
редакцией
некоммерческими
68238
682100
Безналич
Безгодов
Ивон
Субъект
нормативно
нормативной
нормативного
повлия
типового
##ушкин
##ушкина
##anki
##anin
##anova
2015г
ПРИВ
ПРИМТ
универсальная
технике
техникум
Расходных
407028108
40702810714
407028104330000
407028104163900
4070281076202
ФЕДЕРАЛЬНАЯ
ФЕДЕРАЛЬНОГО
анализаторов
Ремонтно
Английский
ККВД
ККНД
Курское
МЕТАЛЛО
Павла
##0433
##2020244
##202000293
##601607
##6010605
##60100000061
##ТОВЫЙ
предлагаемым
радиот
радиационного
радиоакт
ставке
ставка
ставить
Барнаульская
Екатеринбургское
Фактический
акс
аключения
балла
баллонной
доставке
доставляет
доставку
затра
культю
сборка
##1000049
##100007922000055
##100007022000091
предоставившим
предоставившее
кабельная
кабельных
##51008517
автоматических
поликлиники
коллективных
57а
615101001
6151008517
ГКУЗ
Данные
взыскания
взыскиваются
раве
равное
равным
равном
##2063300100100
##60722000224
налоговой
налоговым
Стои
продолжают
временно
КОМН
Оренбурга
Волгоградский
8610
896
Двадцати
листов
оставшие
требова
целых
##50222732
##301602
##301000053
##3010715
##9091
##ополитен
20821201660
несоответствии
дорожно
графит
профессор
МАНСИЙСКОМУ
Бенефициар
ОСГ
РСБУ
РСВО
новогоднее
сануз
##КЛОН
##5795
##чатки
##чатого
##ферен
разреш
разрешения
##6350001800
страховые
накладная
накладную
накладывает
00273
Донэнерг
Метр
Метроэлектр
ТУЙМАЗ
енных
енением
членах
##арева
##3230244
произведен
произведение
произведена
произведены
произведенной
##051000001220000
удостоверенной
картам
40102810545370000068
40102810545370000045
406028107001
4060281060006
4060281080091000001
Николаевский
Николаевны
403095
парка
парков
паровой
сетям
##ИХТ
##533000005
##90129
исправном
исправленного
Застройщику
Иванович
762
76701000
76268
840000
Вода
Горького
Удальцова
едств
едставлено
жизненного
многооборотная
многоквартир
отражаются
##20500000822005
##840010000244
##847723
##1222000071
##6000020
##600006822000
##9322000109
##930495
обоснованности
предоставленным
предоставленную
##020071
##020020
##02009371
##02002840
##22000348
##22000316
##000506220003
##0005990635
##00053822000001
03212000326220002
##035038
АКБ
АККПЦ
Медвед
Медиа
Среднее
Сметным
лаборатория
##офьева
##017000
##0170000244
дохода
доходной
013030001
013410000
дополнений
дополнениями
выдавшей
мероприятия
Больнич
ВОЛОГ
Лоту
ОМС
ОМСКОЙ
Уральском
коагул
углубленным
##АЛТЕРСКИЙ
##БАССА
неотъемлемым
01272000002220051
##0100100190011051244
Получателями
образовательной
образовательная
##7010003700
зарегистрированной
зарегистрированный
Вятском
Вятские
Официальное
зависимой
кроватей
палата
палаты
паспорт
##712000019
##1001923
##400000000036
##400000000604
##3001850
##3001833
##3000165220007
##9651
##9622000316
обороне
##СТРОВАЯ
03731000
037310003
20763Э139
обеспечивающих
221649
2227122000
222713300
№013120000102200
№013030001
№013410000
ВОЗДУШ
КАЗНАЧЕЙСТВА
Принципал
Принципалу
40102810445370000043БИК
03212643000000013500
03212643000000013700
03212643000000016600
03212643000000016700
03212643000000011900
Салимов
Труда
Тепловые
Теплотрасса
маркер
трактор
трактуются
##вшая
##40004800
##6069
##60633001001
##ИПСКОГО
##ett
##рестка
польскому
предоставляющий
приглашения
приглашаются
реконструкцию
1057749
01642000030220028
##0100102420014321244
##ографического
Алексеевича
КРИТЕРИЮ
806274
983
КУИ
КУР
КУЛЬТУРЫ
НЦЕ
НОВАЯ
ОЗЦП
ТАЗОВСКИЙ
ТАМБОВ
биологические
диам
молочной
молочных
состоянием
##500000222001
##янных
##ночной
##арьэнерго
структуре
##014096
вычета
Проц
Проценко
0372200021322000001
0372200275022000236
перевяз
региональное
Александровны
Александровск
Александровича
405018105
Атомспец
Вилюй
Одув
Октября
Сыр
Составляет
Составила
Тридцати
влажных
владелец
ордена
оказал
сделок
сделавшего
сделанное
##цкий
##цкая
некредит
отгрузочным
подкуп
подкреплены
##000465220001
20902009371
Представление
##22002017
##22002083
##22002778
##22002119
комплексного
Калужский
сертификат
сертификате
сертификата
Сергей
пусконаладочные
таможенное
##40200003322010443
044030001
505001001
Аккую
Акимова
Военторг
Карта
Карфид
Юрьевны
землетряс
моторных
модель
мерами
секционный
секционных
##ачка
##0440
##7107
##ЕПОВЦА
##ЕПЛОЭНЕР
исполняющем
нейрохирург
сооружениями
выступающие
выступающего
05902000
05951F9
40102810145370000008
##12110
##6330010010005
делать
несостоятель
подаваемой
407028101
структурным
оснащение
некачественный
ОГРАНИЧЕННЫМ
245301
245301001
64750000051
97490
Евпатория
Единственным
Зеленокум
Ковалев
Пушковых
Экотех
газопотреб
доработок
леса
лежащей
легализации
##74560100100
##фтальм
##функциональное
создалась
отправить
отправителя
стоматологической
проверок
составленном
имущество
имуществом
спецификация
##483000755
признаны
Белоярской
620312110
СЕВЕРСКОГО
абзаца
Октябрьского
психоневрологическая
экземпляров
071773
346900
БУХГ
ВЛКСМ
КОСМОН
Огонек
ПУЩИНО
Счетная
Федоров
толщина
##201030
##8130
##303956170100100
##3860
##3862
##skoe
##skelectr
нежилого
избрания
избирается
разгрузкой
015354008
11599
1157746
115093
##120243
ПОЛЕ
##75328905
Оператора
##2000274
##200024722000011
##200029722005
№0142300006622000024
№0142300011622000057
№0142100004722000020
размещенном
количественные
энергетики
энергетической
ресурсных
Верхне
Удэнской
утратил
отозванной
обжаловании
03100643000000013000
03100643000000013901
03100643000000019500
03100643000000010700
043510001
043807
04303J41980
043601607
043930495
0000464
525801001
508751
Введение
Востока
Дмитров
Дальнего
Дальрыбвт
Девятнадцать
Зубовой
ЛРЗ
Системы
агентство
информа
информированию
машина
полную
платёж
химического
##мыж
##мыкия
##8322000602
##80622000120
##omyag
##райгаз
##017389
рабочее
зачислены
реагенты
10318
1032202269
16698035
конструкцией
допущенных
##073F36748
##1100008
##1100008822000024
##7746872701
Владимировича
2006г
аналогичных
аналогичный
контролирующих
контролирующего
МЕСТНОГО
аккредитацию
аккредитованный
подписываемыми
многофункциональных
КРАСНОЯР
Чебоксарский
0459
628100
АСР
АСН
Головного
Доллар
ПКГУП
Союз
Союзы
Сообщение
ЮГРЕ
академический
камера
льно
льном
льством
льствующих
планирования
ссылкой
фирмы
энцеф
##социация
##271000016220000
##211000215220001
##637501001
##АТОЛОГ
##300034522000
##3000315220002
##9022448
##резов
##резке
обременение
##атулин
соотв
соотве
выплаченного
##4560100100
0171157
11936
119607
119435
субсидий
Красной
Красная
##1122000007
##1122000041
##1122000040
##77290100100
##35648
##35622005107
передавать
передаваемой
##300027522000133
##3000234220003
##300021222000071
Автомобиль
минимальное
метрополитен
сервисов
сервисной
санитарной
рассчитана
рассчитанного
рассчитанное
Сергеевича
позволяющей
Евгений
Квартиру
толкования
Пироговская
ортопедической
ортопедическими
210543
БАЗУ
ВНИИХТ
Дубна
Дубининская
Десяти
Исключительные
Камского
КЛИНИЧЕСКИЙ
Русатом
Русаков
Русланов
РусГид
УТ6
УТ3
Харп
Хартия
ания
внеш
личного
личными
пищеварочных
сокращенно
сокращённое
##761000002
##41891001001
##ИЧЕСКОЕ
##90300010822000
##9129250
##ЗАФАР
##оротных
прокурат
строки
##020420
##02040244
резерв
рекомендуется
рекомендаций
##0014329244
20736Щ
20736У9
0519200
05193001850
##2300007502
##2300000422000101
безналичный
безналичному
Реконструкции
223745
##910000322
##91000074220000
##9100000222000
##91000044220001
##75522000007
Петровна
##04003177
##ИРЭТ
000203002
восстановления
ПОДПИСАНО
Президент
увеличении
##1722000466
СПЕЦИАЛЬНАЯ
квартал
штуках
№037320008
№03731000
№0373100031922000418
внутриплощад
внутриаорт
депозитария
удостоверяемого
удостоверяющие
НОВОСЛОБОД
Производителя
Бурятское
мотивированные
мотивированном
стационарных
стационарного
препятствующего
Архангельская
Андрей
Андреевна
34992
3499200
644433
745301001
7453010715
Абдрах
Двух
Кочки
Пятигорск
Пятигорская
Ревдинская
Сорокин
Темрюк
Талицкая
Указано
Худышкин
альтернативности
локальный
лесов
лесхоз
лесничеств
модернизацию
ограждений
параметрам
партией
узлов
узлы
узлом
шину
энергоприним
##7370006200
##41218701
##техэнерго
##техники
##khod
напряжения
председатель
пробел
пробег
отходы
##01000073220000
вышедших
##22853
##2282220002
расценок
456770
20626Х303
20646Х74
0582318
05873014340
Отказаться
устанавливае
Неисправные
##06560
23539
##2200000122000091
недостоверных
222710703
222710403
##48329
##181000506220003
ПРЕДОЖЕНИЙ
несвоевременным
№036220007
№03691000044220001
ПОДГОТОВЛЕН
САРАТОВСКОЙ
2226350005990635
2226330052706
##300000122000179
скорости
учебной
автоматизированной
автоматизированного
автоматизированное
объёмом
ЛЕНИНГРАДСКОЙ
земельного
Эксплуат
Васильевич
БАРНАУЛА
трансформатора
применимо
ОБЪЕДИНЕННЫЙ
Нерюнгр
Нерюнгрин
рентгеновская
ЧЕЛЯБИНСКАЯ
2х1250
2001200
20006000020
692040
mrsu
АКТА
Бау
Бачинский
Луговая
Многофункциональное
Остаточный
Понизова
РМЭ
США
Ямалкоммун
даже
доверительного
демпингом
масел
погрузке
погрузочно
село
урегулирования
№018730000
№0187300014722001
##204000004
##1000144220000
##100011822000053
##100011122000041
##4638
##46390
##лыке
##лынский
##ОЙЛ
##ЯТИЯ
общедоступ
обновление
##олюбова
##010080
##010081
изложен
##2206220
##2206690
##45200005522000013
Подразделение
035610002
20523
20586Х
20546У39
20916
20911035
209180004
05393006450
воздух
своевременно
своевременного
##0310000244
##0360000244
##036980
конденс
Необходимость
##129244
Заречный
Заречье
230а
##518220007
21560
##7522000045
##7522000051
приложенному
##61300009122000299
##елокатай
##0422001380
##6554401500
##22002133
##22002138
##2200217822000013
взимаемой
взаимных
выбранный
тротуара
2226330049982633001001001
##ernet
подавшими
##7010003400
Корсика
Корсчёт
требуемые
требуемое
##53300066922000
169372231
маркировочном
405028107
4050281070000
40502810400000000036
невыполнения
невыполнении
невыполнением
невыполненных
агрегаты
045700228
045700308
СЛУЖБА
фирменном
210544200096
Межрегиональная
НОВОСИБИРСК
Гайдука
противоречащих
Квалификационные
Псковавтодор
СТРАХОВАНИЯ
деревянных
ПРОЦЕДУРЕ
025401001
0251046
27701000
27701000001
67312000
6247
624250
7734135124
Березовский
Березники
Вожик
Ведомостью
ГБСУСО
Демидова
ЗКНД
ЗКЭФ
Номе
Ненецкого
Печорская
Печенье
Парковая
Парфенов
ПЕРЕЧЕНЬ
Планиру
Рудников
СЗАО
СЗОНКЦ
горяче
гидравличе
гибких
моющие
микро
оферта
оферте
оздоровительный
покупку
покупателю
пассажирский
турбина
твердых
учае
№925
##2000306220021
##4268
##6Ц294
##6Ц366
оборудованию
закрытой
закрытая
прямой
109507
1095050002
осуществляемым
осуществлялась
##1061244
Стринском
организатору
20306У03
20326X
20396Щ
свидетельство
свидетельствует
1147746872701
##03000476
иммуноде
221504101
##6394404500
170041218701
19558
##5130003500
эксплуатационную
22286120145
Нововоронежской
03232643657370006200
МАШИН
783450001
сайтах
сопутствующих
сопутствующие
сопутствующим
Собрания
онтрактов
Нижегородский
Нижегородпассаж
##0200000322000239
группировки
2080600
20806X01
20806002090
20825219750
паспорта
паспортом
Генподрядчиком
добавленную
функционированием
5050077618
Территория
уточн
Дальневост
диагностической
диагностического
диагностических
камерой
05353Q37370
30101810900000000603
30101810900000000771
проезда
ПОДГОТОВКИ
2226350018693
тарифов
сохраняет
эндоскопов
30301607010ВР
вакуумный
чрезвычайной
00000025
0223000075
507080
60730000
651701001
9140501
Code
salih
ВЯТСКИЙ
Воскресенка
Кинеш
ЛОТ
Лист1
Материал
Материала
Мухомора
МГУПП
Прокура
Прокофьева
Святителя
Склад
Скорость
Соколов
Харабалин
Шмаков
ведется
ведению
ется
етствии
ежеднев
ежемеся
жалоб
кури
каталога
кладки
крупной
лестницы
сдача
совершении
таблица
терапии
хлоп
характеристи
черте
№02171
##вижимость
##751000008220000
##6260003200
##626847723
##68722000140
##кетинг
##522001603
##розион
##hernet
предоста
##щевого
централиз
##лаждаемой
реакторной
449279
банкротства
политики
политике
политехникум
выплатит
Стерилиз
Подробная
разработано
процессора
0307300046822000127
0307100007522000023
0348100026122000054
20356Ч97700
20356Х69
20356Ю904
05175037
05221302666
05222201630
05222206690
05072000171
0169300000122001043
0168500000622003
1681000049
309187
309189
##2300011922001
##00010822000068
##илизаторов
196247
##51524258
##200008422000170
##200003022000138
##21000493
##21000100220003
##2100011722000466
Кодекса
##200289722000007
##2742201
03232643816244
Минимальный
№0307300046822000127
№0307100007522000023
№0348100026122000054
0142200001322020688
0142200001322020755
экспертно
экспертной
##ифицированных
##ифицированная
6678021841
Автодорпроект
факсимильного
##00000822000041
##00000822000040
сканированных
водопровода
водопроводной
##00000122000008
вышеуказанных
архива
##67100019322000109
международным
##32300034422000091
СервисНед
Гордынов
Прикреплено
выражает
выражающееся
инфекционных
Ковровский
предусматривающего
ВЫПОЛНЕНИЯ
№0142200001322020688
№0142200001322020755
16678912
ТЕРМИНОВ
ветеринар
ветеринарной
светильника
светильников
светильниками
компьютерной
Конституции
гардеробов
##52580100100
##91200000622007164
Кубаньэнерго
30101810200000000837
применимого
Степановича
##455010010090090235
кондиционирования
1693722316
1693722315
1693722313
2105441000450502
аттестации
свежие
компетентного
компетентным
демонтажу
демонтажных
салфетки
заболевания
0325264300000007
ассортимента
027801001
302028
30230
3250000
31190129
421701001
4216006612
4870501
413220
51975
661701001
797696
zakaznc
zakazrf
АТОМНОГО
АТОМФЛОТ
БАЛАНС
БАЛКАРСКАЯ
Вороново
Вороновское
Гурылев
Ершовская
Ефрем
Копия
Копейск
Лапшина
Милютина
Миасского
Молодёж
Максимальная
МЕРЗЛОТ
МАРКСА
СНиП
Справки
СЕЛЬСКОГО
СЕЛЬСОВ
Тарко
Тарусское
Уведомление
Фрунзенского
Широк
Шишкова
алфав
аллея
встроенных
дверные
есет
зимние
панели
потолков
повышения
повышению
пластмасс
сформированного
сухого
цепей
№8601
##ооборудования
##243000210220003
##1128460
##13500000122013595
##6450000022200
##695000014
##3D026
##3D06560
##31011571
##лийском
##ОЯЩЕЙ
##TRAC
##TROIT
обозначения
обозначают
##льногопитания
##00820
нарочной
наркологический
##особности
##едневная
отбору
отбором
##люминации
стоячих
стоянок
становится
##02123
поддоны
Пролетарского
20206Е322
учредителей
учредителях
##0014211244
выпуске
030130105
030130315
0340200003322010651
0340200003322010650
20496Ц294
05671873980
05602002840
05373P
05371128460
0528200
05283D026
конечной
конечностей
##адынец
##2537999
инженера
продовольственной
##7100003901
##7100006700
249915
предпринимательской
протезно
протезами
##73200001422001126
222561702
##48240100102
0323164346771
##01810400000000604
№01272000002220051
##09686
03232643036350001800
03232643275130003500
03232643327160003901
03232643327100003901
032326438061000001
032326438062742201
нарушающих
Минусинск
№035610002
№03224643220000003200
№0340200003322010651
№0340200003322010650
Коммерческий
Коммерческое
Володарского
контейнеры
Кулундинская
Кулундинского
##300356622000039
222631570246063
ТЕХНИКИ
Беломорск
Беломорский
№0372200185022000046
03234643607370005800
металлург
металлоп
накопителей
аппаратам
аппаратуры
вышеизложенные
Сублицензиар
ПОРУЧИТЕЛЯ
20746Щ835
221781025163027
2217820009821
испытаниях
0372200185022000046
05905010081
мажорные
Камчатский
Камчатскому
Любой
Люберцы
инвентаря
006220388
Новокузнецк
23001020320
23001020440
Территориальный
2226350018816
2226350018848635001001
Воробьевская
Котировочной
арифметическое
арифметические
бесплатное
досрочном
10751080
Отрадненская
дезинфицирующих
БЛАГОУСТРОЙСТВА
ДМИТРОВСКИЙ
гинекологических
очередь
очередного
субподрядных
Краснотурьинский
22263450041666345010010005
металлических
микрорайона
ультразвукового
021001001
21075
295011
295014
263501001
2635244268
344002
402702
625041
665801001
6658017389
710401001
80302060119
8596
9246
918423700
Hewl
Hemol
ekogr
ekonomi
soby
Амурский
Амурскй
Виталь
Витал
Гаврилов
Гладышева
Гладышев
ДККБ
ДВИЖЕНИЯ
Денис
Домодед
Добролюбова
ЕГРЮ
ЕГРИП
Зинатулин
Исчерпывающий
Исследование
КАРЛА
КАРТОГРА
Муравленко
Максимов
Малая
Малмыж
НПА
НОВОШАХ
ОПОРНЫМ
Олькин
ОКАЗАНИЕ
ПИМУ
Рублево
Резник
Сводный
Снежинск
Снежиной
Требова
Тимижева
Тимижев
ФОМИНСКИЙ
Шампун
ЭКСП
вещания
госуда
купли
клещевого
клиент
клинико
кислота
лнения
морской
поверх
снабжения
снабжению
тельств
хирургии
циклу
цикла
##манинова
##72930
##823220
##100031122000040
##4232
##42300000122001124
##422000485
##6У64220
##64441891001001
##5035795
##343002282220002
##9777
##закупки
##шевска
##SSON
##0022000049
##0022000057
##00980020000244
нарочно
нарочным
создания
отсут
Заказчи
##0101169
##0240000244
ребенка
ребёнка
##22122000056
Наименьшая
касающ
108840
108830
##001189
##0011826
Старчина
Подготовка
Подготовил
обладающих
20456Ж98
0501021
05156623
05172002800
самозаняты
048142604
0492058
049205603
120701348
11856
консультации
допустимой
допустимое
сопроводительных
##120013230244
##120100100840010000244
ПОЧТЫ
ПОЧТОВЫЙ
##050275328905
##050739
представляемое
неустранимых
неустранимыми
##7140003
##7150006400
недопоставки
0322464325000000340
03224643250000003400
0848300066122001080
0848300066122001109
##9100000122000110
автодорог
##7522000788
ОКОНХ
ОКОНЧ
##7322000006
ФОРМУЛЯР
##20073980278
##779470601001
№01722000054220001
компонентов
компрессорных
компрессорам
03232643257010003400
03232643257140003
03232643717100006700
0323264329634000
03232643297010003700
##29422000181
##41522001188
##41522001214
Комсомольск
Комсомольская
##7422000037
656050
78360
7836081
781701001
78170269
Кущевский
Кущевская
№0848300066122001080
№0848300066122001109
##300320000244
двухсторонним
22263190416
2226318111095
222631814193563180100100
##22000570
772501001
7725262013
772801001
Приведены
Приведено
запрашивается
запрашивающего
##300005022000043
КАДАСТРА
КАДАСТРОВАЯ
этнокультур
этнопар
30101810300000000606
03214643000000015100Номер
водогрейного
водогрейный
Кузьмин
5827140
Совместно
##7022000133
классификатору
смеси
##2022000033
##2022000052
цифровому
Горноуральский
топливных
топливным
Исправление
НОВГОРОДСКОЙ
Бузулукская
конструкторской
конструкторский
40102810145370000070
40602810560100000061
Зеленогорск
Зеленогорска
ПОЛУЧЕНИИ
ПОЛУЧАТЕЛЬ
диагностике
Социально
Социальный
##300038022000175
пересечениях
передаваемого
ТРУДА
20736Х72930
ОПРЕДЕЛЕНИЕ
Редькин
Редькина
Редюков
Редюкова
СТРОИТЕЛЬСТВА
222633005012063300100100
2226330050160633001001
Черкашин
Черкашина
366201001
3662014096
гидротехнических
гидротехническими
неоднократно
неоднократное
1700479
170047907
Кондопожский
Кондопожская
Космонавта
Космонавтов
терапевтических
05592D01190
05592D00820
Ветчинникова
Ветчинниковой
Дивеевская
Дивеево
аффилированного
аффилированными
admhmao
Череповец
Череповца
бассейна
##02184123190100100
уничтожение
уничтожена
пешеходных
Удмуртской
Удмуртская
221772904049177290100102230010000244
221772904049177290100102120013230244
0232007398
4752
50184
55104035
6659022448
848040
902410010
Docs
guop
link
ozik
Билибино
Билалова
Белоусово
ВИДОВ
Глущенко
Галигуз
ДНК
Декан
Дятьковская
Добровольск
Ежедневная
Жатайская
Звёзд
Здравоохранение
Ильича
Контрак
Кравцов
Кучер
Калевальского
Лимаренко
Лидер
Лекарственный
МКМЦ
Мацеста
Малино
Мешки
Навлинская
ОАЭ
Поволжский
ПСИХОН
ПЕТРОП
Пятнадцати
Родильный
Размещение
Рахманинова
Сувор
Сакадынец
Соответствующая
Туйм
ТВЕРСКОЙ
Тимаш
Титова
Топливо
ТИПОВАЯ
Ухта
УДМУРТСКОЙ
УГЛТУ
ФНПЦ
Хмельникер
ЦИТОВ
ЦТХО
Чеченская
Чкаловск
Чехол
Шестидесятилетия
Эрисмана
амечания
апроса
английском
алюминиевых
брус
бланочной
вдоль
ведомость
ельством
иллюминации
историко
крона
клубов
казчиком
кузовному
категории
ловиям
менедж
максима
навесное
носторон
ножей
оговор
ошибки
постоянный
ростом
русском
слив
снежных
систе
справки
театр
тестов
фармацевт
язи
##наволок
##оустовский
##72500000122000008
##4439
##ИАЦИЯ
##39190
##9222000120
##itet
##ТНЕРАМ
##ТИНСКА
##ратичное
обустрой
##отехнический
закладной
предписаний
неурегулир
откачного
рафинированное
##016163
##0147244
усмотрено
подробная
уставном
застройщика
пригодной
природного
высотного
Прохоров
20266Б0168
прочего
Наблюдательным
00339595
##1051323
Стоматологическая
авиационными
Подтверждением
453663
0511001
05693D06560
05901550400
05222D508
дооснащения
перекрестка
116А
##032033
##034002
##03530013250244
##03270648240100102
операциям
##0600001622000070
инспекция
##ахтинск
246501001
отношениям
183038
недействительным
ДОКУМЕНТАЦИЮ
2300229
08614718
##9100010922000067
Краснозн
Красноармейская
2223731011571
222616410243661
222263680575
Новобелокатай
##481016900
портландцем
##2401001001200
##22003800
223022300007502
22389050275328905
№01611000023
№0169300000122001043
№0168500000622003
двусторонним
28902007337
распределительная
регулируемых
##7822000639
запрещенных
03232643226260003200
0323264317652101
##290632401001001200
№03212000326220002
Претензия
33015907870
единовременно
САМОХОД
350049
##60916010605
советом
электроприборы
7720522853
394068
№30101810400000000604
РКСЦ
Лиски
##3000841220001
Тюмени
##300003822000042
Первоуральский
1023601581960
Соболева
аптеч
РЕЕСТР
30101810600000000603
Артёма
Инициатора
Инженерных
серверов
Кузнецкмеж
Обязательствами
ПРИМЕНЯЕТСЯ
4070281063826
Курчатова
ОДУВАН
УПРАВЛЕНИЮ
##20200019822000048
Законодательное
ЗАПОЛНЕНИЮ
Гордеева
обосновывающие
Посадский
830410690
наибольшее
Алексеевка
вешалок
декларации
подключаемый
земляных
2455013649
Зеленоградского
БУРЯТИЯ
информатики
628408
internet
Байкальская
Лесозаводск
внебюджетные
дренажной
торшерной
прокладке
Боготола
памятников
предпочтения
30101810200000000607
20014Х
7714941510
05393057950
Новокуйбышевска
взаиморасчетов
Первичная
неоднозначного
туалетное
ВНЕСЕНИЕ
Крутий
Свиридова
Светлый
лестничном
найден
пересчитана
03252643000000071700
WDBAGF0010
встречных
генератором
сотрудника
неудовлетворительного
выпускаемым
05483D66970
ТЕХНИКУМ
828527660
006220858
222634500416663450100100050
Великие
Зверево
Тобольска
Тайшетская
адаптации
верхних
сантехническое
подсолнечное
служебных
Избирательная
03232643467840004800
40601810200003000000
2226330051808633001001002700
Афипского
Игнатов
Паштецкого
ПЛАТЕЖНОМ
Рамешковского
Румянцев
РАСТОРЖ
Юмагжино
бутилированной
визуализации
древесины
звонка
клапана
круглой
праздничной
скидку
факультет
широкого
шерстяной
предохранительного
проявляются
неиспользованным
032726430100000
040173771
малоэтажной
Петропавловск
22263640004886364010010039
22263160194326316010010125
РЕАБИЛИТАЦИИ
сельскохозяйственной
КРАСНОЗНАМЕНСКИЙ
Грузоотправитель
222860700565386070100103530013250244
065740
00000069
022301001
0254005845
021002709
1шт
1719129250
1ИЗВЕЩЕНИЕ
171841
20001179150
20054035038
34706037
39710
4100307
630039
622013
670047
607320
645243001
663943002
61524579
703975
7104050739
825425160
924010017
DETROIT
Ethernet
False
GM16V92
GAZPR
MASSON
MSK
ONLIN
Parfen
Packar
QNT
SPHIN
Sony
SurCS
VoIP
biz
bvi
efim
elcom
knpp
komitet
kolomyag
kinges
mulam
oaotsk
online
omskelectr
smz
torgi
voskhod
Ассоциация
Аппара
АВТОМОБИЛЬНОГО
АФИПСКОГО
АэроМар
АЧБФ
АЛЬФА
АНАЛИЗА
БРЯНСК
Бречалов
Берд
Бийск
Баяндина
Боярский
БЕНЗИНА
БКТП
Бибиков
Блохина
Балашиха
Балтийско
Бессонов
Бетонирование
Величина
Вениаминов
Вихля
ВОДОКАНАЛ
ВРГСиС
ВГСЧ
ГЕОП
ГРКЦ
ГЦЗ
Гречишников
Гаккелев
Готнаволок
Гостехнадзора
Гормедтехника
Галеев
ГОЧС
Гармония
ДЭТ
Давыдов
Доставка
ДРУГИХ
ЕВРО
ЗИЛАИРСКИЙ
Златоустовский
ЗелАО
Имеются
ИТОГОВ
ИМУЩЕСТВОМ
Кипр
Кудряш
КАНЗАФАР
Калмыкия
Калаусский
Коваленко
Кухаркин
Коэффициент
КУЗБАССА
Лабытнанг
Лучшим
Лабинск
ЛУКОЙЛ
Липовая
Лыткари
МСЧ
Мерзлот
Мизенко
Малыгин
МОКМЦ
МЛРЗ
Мулымья
НкТЭЦ
НУЖД
НИиПИ
НИКИРЭТ
НАСТОЯЩЕЙ
НАРО
НГУЭУ
Ноябрьск
Онега
ОФОРМЛЕНИЮ
Остапенко
ОАРИТ
ОТВЕТСТВЕННОГО
Онежский
Ошибка
ОУХД
ПДЗК
Погребнов
Погосбе
Путем
ПОВВ
Пещер
ПАРТНЕРАМ
Потапов
Паровая
Пуляевский
ПАЛАТА
РВК
Ровесник
Римского
Роскосмос
Равильевича
РИФСУ
Случаи
Синев
Сформировано
Семыкин
Салихова
Сборщик
Существенными
Споры
СТОМАТОЛОГ
Свидетель
Суворовская
ТЮМЕН
Тазовский
ТОВАРОВ
ТОЛКОВАНИЯ
Транспортные
Тужина
Тополек
ТСАХ
Унифицированная
Успенское
Усадебная
Уварово
Убытки
Училищная
ФБМТО
Фаниля
Фирсанова
ФЛОТА
Хвалынский
Хамишевича
Хрусталева
Хасана
Хозяинов
Харьковская
Чекурдаев
ЧПНИ
ЧГМА
Чубко
ЧЕРЕПОВЦА
Шолохова
Шадр
Шведская
Шерстоб
Шприцев
ЩПТ
Эльканов
ЭкоЦентр
ЭТАЖ
ЭКОГРАД
Энергетиков
ЭОПС
Юбилейной
ЯХСКАЯ
Яльчик
Янтарьэнерго
ареста
ауди
бинарных
буква
бованиях
библиот
барабаны
билетами
вспомог
вложенный
впоследствии
ведущего
вновь
владение
вариации
внеоборотных
вручении
глюкоз
готовности
дельном
досудебном
дисков
езопасности
еспечение
жирности
злоупотреб
идентифиц
костю
койки
кубический
кранов
квадратичное
книжке
моста
мужские
магнитно
нитри
нетиповых
овощей
пистолета
публично
пневматических
росатом
розничная
ручного
редуктора
рулонах
сгорания
сказка
сосудист
спального
сладкое
тюль
тазобедренного
течь
фильтров
фитосанитар
фасованное
фасада
холод
хлеб
шприцевой
эпримект
энтеральногопитания
ярлыке
ящики
##иравтотранс
##иатура
##сезонное
##муниципального
##цепт
##09100007022000133
##14500000822001470
##163000170220001
##42100013822000020
##62100000822000040
##кратного
##плексная
##Калужской
##ИСКАТЕЛЯ
##56317
##52490
##50200000422001380
##322000146
##34100007522000051
##9497
##922001394
##91100003722000069
##боксарска
##фармация
##sgoszakaz
##F19320
##N95365
##BSL
##ECONTRAC
##Ш99960
##U65310
облицовки
##0022000172
предупреждению
предвидеть
преднамеренного
предотвратить
пролете
неизмен
непередаваемой
неохлаждаемой
негазифицированных
нерабочий
нефтепродуктов
неоригинального
##ейкопластырь
##арионов
##00003222000274
##00007522000997
Обжалование
стелла
##01500001122001
##инамиче
##инвентаризация
заключён
подогревателей
изделие
изучением
работоспособности
заготовке
загрузить
##облока
оплачены
приставов
причитающиеся
приспособление
реверс
реализуемые
референтный
446302
447168
вычислительной
выездной
документооборота
##22200002522005
##2269772301001
Наугольное
007182108
005100301800
разместивший
1041626847723
полиэтиленовые
полуприцеп
##0012711244
##00111322000039
преступным
20103020420
Стрежевой
##45300021122000007
автофургона
Подведение
Поддержка
Подпружников
разглашать
##4300047322000006
##4300097522000788
454091
45382000
4544854
030120285
03001452131
20486У64220
20596Ц366
20606Ц
20386Ш99960
05643201030
05632000050
05323010080
05023005650
05003020000
05014000130
05174036980
05661823220
05110260060
0531015
05453009630
05343008130
05242017000
05731F19320
05433010230
воздерживаться
доукомплектовании
##37222001030
##37100010022000057
042748
049805770
042908001
04951001080
042202837
0491062
011501101
011012100
013002402
015773997
019514901
1202600000470
ЗАГРУЗКИ
117312
119991
1121011270
##643000127220001
##030928
##0300000122000029
##03487852580100100
корректировке
ДООПЦ
ДОШКОЛЬНОЕ
УФКпоКалужской
Некомплексная
Нептун
Нефтеюганская
Неуведомление
уплаченных
##230100100050002910244
4010181033510001
141207
147840
14729302
##06200006822000239
##0622000257
##1200020022000049
позаполнению
03226643400000007200
командиров
##00016122000022
##00013322000069
##00015422000206
##0563190100100
220907
22124550222732
##6322000195
##63100005522000014
##6312010010005
##6300004322000060
ИНН7751524258
ИНН5258016163
интраоральной
продажи
ноутбуков
приемлемых
КПП775101001
РОСАВИАЦИЯ
РОСНЕФТЬ
Крайтехинвентаризация
периферий
187342
180158100
##11300008322000602
##115000019220001
недоработок
03224643180000002900
03224643150000002701
03224643970000001500
03224643680000006400
03224643300000003800
03224643660000006301
03224643100000002300
191300011
197374
197227
23005080360
2308248329
2308007718
##51300000122000348
направившем
##91422000926
##75200000222000570
##200007822000011
##200001622003800
##200003122000173
##200001422000043
##200000622005208
Идентификационныйкодзакупки
##2200007922000121
##2200004722001770
ОКРУЖНАЯ
##7300000822000256
##7322000547
##986003
##21600003822000142
полуавтоматической
22202320073980278
222525803487852580100100
222482403270648240100102
ЭЛЕКТРОСЕТЬ
##00590022751244
##00530001061244
##6586120100100840010000244
##6522001741
Новошахтинск
Новолялинская
Новочебоксарска
0323031221
Сахьяновой
Сахминфин
МУСОРОВОЗА
##2822000806
##28300006322000195
##28300032822000806
##28600001922000207
##28023672
06660932001
06017986003
067613
пескосоля
##244300100980020000244
##35200014922002511
##35300012022000052
##2200276822000005
##22002977
##22002069
##22002057
##1922000319
##19300012622000069
##19300038022000185
передоверия
передвигающихся
22329060024592906
2234010520
223231902184123190100100
ИСПЫТАТЕЛЬНЫЙ
##2620242
##26022000150
##183000199220002
##46200010722000028
##4622000380
##46200000922000231
№01642000030220028
№0162300003622000143
2810345370000033
ПРЕДУСМОТРЕНО
пенсионных
##66200035622005107
##ипятиль
290318010
понуждении
понедельник
несоразмерных
несоблюдения
##099928
##094184300
03232643416394404500
03232643976554401500
03232643687150006400
03232643037260001800
03232643376094184300
03232643756481016900
03232643427010004600
##640100101200013250244
взятки
##29200005322002247
##45252000104
2721187743
Конаныхин
##3922000513
картофель
03222643920000001100
03222643630000006000
03222643660000006300
03222643800000000100
03222643780000007100
03222643690000006501
03222643110000002400
##86722000039
##49300005022000062
##1522000361
техногенного
##36035577
термоядерных
##100021122000058
##740018129244
##244081137
##8722000115
##1300000622001948
##1300040622000056
доминирующим
##69300068722000140
##69200000222004439
350107896
##0100100830012620242
Мосгорсвет
ОГРН5147746032033
Городищенского
0291006
судоходства
общежития
##300020022000149
##3007455
##300445322000146
##300274622000291
##300469022000377
Североморская
оригиналов
##97922000374
2226320001290632401001001200
2226312026894
222632300179663
##2200071122000133
##2200061322000212
##2200068022000167
электрофильтра
электроотсос
электроэнергии
7712029651
7707306652
7727156317
7708709686
3905606770
434159os
48270370
4826024073
##300079422000485
##300063522000194
##300044822000276
##300072122000015
Автовокзал
Тюрьма
##300008522000020
##300000622000286
##300000522000363
МОСГАЗ
инстантная
№4070281060916010605
##55600001922000015
38910064441891001001
##92636010010045
1020300888739
1026102483164
1027403892328
интервале
КАБАРДИНО
КАМЧАТСКИЙ
Собянин
РЕГИСТРАЦИИ
##38222000444
##38300007422000304
75401386000
Волгодонск
20086У70000
20075У71040
скважины
03234643806060000100
03234643957090008000
03234643227010003200
03234643787150007100
03234643647080006100
30101810700000000187
квалифицируемых
Арзамас
##200082822000012
##200036222001189
##200011122000001
##200019722000232
водозабор
сердечно
55663034002
55080035648
СПбНИИВС
1434027864
корпорацИя
Ставрополькоммунэлектро
018142016
018327106
0162300003622000143
##7300301922001394
Алтайкапиталбанк
задвижек
однократно
40102810645370000035
тепловизионной
контрпульсации
некомплектного
незаблокированных
##22500000522000056
противоаварий
противодействии
##0100101320011722244
Безналичный
##anindr
ПРИМТЕПЛОЭНЕР
40702810714244081137
40702810433000002123
40702810416390033158
40702810762020101169
МЕТАЛЛОИСКАТЕЛЯ
##20200029322000078
оставшиеся
##30100005322000170
санузлов
Донэнерготранзит
Метроэлектротранс
##05100000122000049
40602810700100000173
40602810600061100008
40602810800910000014
403095020020
##53300000522000108
##20500000822005035
##600006822000603
Больничный
ВОЛОГДА
коагулометр
##71200001922002977
##300183322000003
##300016522000720
0373100031922000418
20763Э13970
ВОЗДУШНОГО
Салимовича
80627422
##500000222001342
40501810545252000104
Атомспецтранс
Одуванчик
##00046522000135
##2200277822000087
Карфидов
05902000760
05951F93820
97490Э
Зеленокумский
Экотехпром
газопотребления
##48300075522000296
БУХГАЛТЕРСКИЙ
КОСМОНАВТОВ
##3039561701001006
1157746099928
##200029722005237
043807606
04393049570
000046424
Дальрыбвтуз
платёжным
1032202269330
энцефалита
##27100001622000049
##21100021522000147
##300034522000406
##300031522000223
##300023422000325
Русланович
РусГидро
##76100000222000040
##90300010822000536
20736У94380
##9100003222000071
##9100007422000034
##9100000222000645
00020300243
внутриплощадочных
внутриаортальной
НОВОСЛОБОДСКАЯ
Абдрахманова
лесничество
энергопринимающих
##0100007322000044
20626Х30330
20646Х74070
05823180510
##18100050622000302
№0362200070622000257
№0369100004422000116
ПОДГОТОВЛЕНО
2226350005990635001001005
Нерюнгринской
2х1250кВА
Ямалкоммунэнерго
##20400000422000204
##100014422000066
общедоступных
20586Х46390
20546У39290
20911035655
20918000461
##51822000795
##53300066922000668
1693722314
40502810700001001923
2105442000960241
горячего
гидравлическим
##200030622002154
1095050002376
20306У03220
20396Щ39190
##0300047622000004
иммунодепресс
2215041012269772301001
17004121870102040244
222861201456586120100100840010000244
Нижегородпассажиравтотранс
20806X01240
2226350018693635001001
9140501121
salihova
Прокуратова
Харабалинский
ежедневно
##75100000822000029
Стерилизатор
20356Х69080
20356Ю90460
05175037000
##2300011922001099
##2100049322000012
##2100010022000324
03232643816244800200
СервисНедвижимость
##4550100100900902351243
4870501073F36748
zakazncm
Ефремова
Молодёжный
МЕРЗЛОТНАЯ
СЕЛЬСОВЕТ
алфавите
пластмассовые
##24300021022000387
##64500000222003389
##69500001422000107
20206Е32210
20496Ц29420
05373P52490
05283D02620
2225617023039561701001006
03231643467710004800
03232643806100000100
222631570246063190100100
металлургический
ПОРУЧИТЕЛЯМ
20746Щ83540
221781025163027244300100980020000244
221782000982178
Hewlett
Hemolux
ekograd
ekonomist
sobyanindr
ЕГРЮЛ
КАРТОГРАФИИ
НОВОШАХТИНСКА
Шампунь
##34300228222000221
20456Ж98860
03232643296340003700
7817026947
222631904160563190100100
222631811109563180100100
222631814193563180100100300320000244
этнокультурный
этнопарк
55104035488
guopsgoszakaz
ozikjkh
Галигузова
Звёздный
ПСИХОНЕВРОЛОГИЧЕСКИЙ
ПЕТРОПАВЛОВСК
фармацевтической
неурегулировании
05222D50830
222616410243661640100101200013250244
22226368057592636010010045
портландцемента
223022300007502230100100050002910244
223890502753289050100102420014321244
28902007337890801001
03232643176521012800
##300084122000124
Кузнецкмежрайгаз
40702810638260011826
ОДУВАНЧИК
WDBAGF0010BSL
03272643010000091700
0210027094
34706037779470601001
GM16V92TA
GAZPRUMM
ONLINECONTRAC
Parfenov
Packard
SPHINX
SurCSON
efimova
kolomyagskoe
mulamb
omskelectro
Вениаминовна
Гаккелевская
КАНЗАФАРОВСКИЙ
Лыткарино
Мерзлотная
Погосбеков
СТОМАТОЛОГИЧЕСКАЯ
глюкозы
злоупотребление
эпримектина
##16300017022000172
##01500001122001167
##22200002522005536
20596Ц36690
##64300012722000145
40101810335100010001
221245502227324550100100900902351243
##11500001922000139
222023200739802780100100830012620242
223290600245929060100101320011722244
223231902184123190100100740018129244
##18300019922000275
22263120268946312010010005
2226323001796632101001001
№40702810609160106058
ПРИМТЕПЛОЭНЕРГО
221504101226977230100100590022751244
ONLINECONTRACT
